Conv_41_param_0 12.949330 1.628957 1.577239 1.734632 2.096839 2.041216 9.716893 2.092524 1.804344 6.557503 1.854837 1.686757 2.359048 9.030718 8.498842 8.872555 4.902997 5.197902 4.736763 30.632235 2.615820 4.049216 7.903364 120.530434 9.958591 7.741759 1.630403 3.011705 39.164715 8.915742 11.390703 2.185589 
Conv_44_param_0 177.354202 466.140717 212.151123 330.928162 222.285629 269.333862 496.970764 252.461716 337.223602 328.567474 1038.313843 407.471710 275.668701 304.797058 173.728760 638.394043 236.388062 198.123199 243.240326 238.343033 220.842667 448.105103 252.035217 244.764465 275.993378 147.478897 267.453766 239.934875 289.795288 221.153107 676.063843 643.188904 369.273499 390.369171 279.511200 225.768494 266.075806 266.129364 1074.842285 514.549255 426.843567 155.897781 411.802643 810.782654 409.496521 873.075317 308.981171 872.059937 239.343262 306.634094 513.989014 666.241150 320.725311 480.193237 533.660828 176.481766 250.823853 167.148178 1031.683472 255.384811 157.461838 625.943176 255.447296 240.963364 
Conv_47_param_0 1580.043457 2188.140869 445.350128 644.242004 999.024841 888.973267 854.441467 627.619934 772.654175 213.349533 388.235443 1076.330688 495.698334 474.372284 1269.094604 2012.743774 1486.516479 888.622070 543.271729 135.311432 1511.136108 597.015320 646.172241 1111.069092 730.172119 317.879547 1401.979858 208.215652 1385.913696 1806.939697 888.691956 1872.803589 
Conv_50_param_0 107.160660 88.348167 111.415405 206.645355 115.712227 144.114182 120.225632 120.718529 73.828613 96.809746 117.767181 61.165806 54.677048 154.244400 39.260666 116.344376 136.404266 74.930458 229.883698 127.709633 189.159378 141.724442 143.732468 62.014126 133.964050 71.119400 77.589081 202.289459 127.258858 71.788780 100.947487 71.356422 
Conv_53_param_0 63.004951 34.794449 41.553234 50.351223 50.894802 93.973511 39.702827 33.227200 71.476646 33.233986 96.947281 52.101505 53.917980 50.669762 46.048676 35.542107 35.701141 65.246147 40.015079 40.079620 55.364296 26.260363 40.629341 28.528671 36.714905 73.135666 81.621712 83.634155 26.841482 70.524101 38.796314 41.927399 
Conv_57_param_0 754.420715 512.740234 319.966522 231.083328 316.662231 716.170776 275.453217 567.121765 265.131012 348.071594 240.142502 266.474976 326.139130 210.105743 232.618454 551.215454 213.218063 328.643311 545.798218 211.637070 199.518784 276.309540 530.267395 315.544067 266.644348 171.449661 347.307587 130.910965 365.301239 454.947235 378.834137 454.541351 
Conv_61_param_0 387.304443 398.785828 410.361450 365.419128 369.554565 323.633942 344.294281 260.557129 443.715851 500.974030 568.334534 286.352020 508.862457 675.304321 374.321045 318.700134 478.050751 574.883972 318.409119 296.184509 332.534943 526.071899 470.188690 288.243164 263.074249 376.734741 512.048340 339.937531 276.062744 485.031311 397.812653 496.661285 356.447815 358.334564 345.691986 408.090271 324.260895 344.846130 392.021820 251.120728 429.937378 119.451477 266.703400 283.168030 380.529999 370.874969 341.814880 203.693085 211.319916 315.400299 456.411438 207.857285 276.772430 319.144012 647.809509 350.758026 294.884521 483.163788 306.507629 255.688354 447.008728 594.761658 330.045410 260.080322 
Conv_64_param_0 599.544739 503.082001 1269.484375 563.461853 551.225952 839.671570 1078.882812 722.033081 1190.301392 1580.175293 609.596375 1300.902222 709.861572 644.174683 517.624451 878.342651 537.166260 468.206451 605.923035 517.413940 493.316254 406.716003 994.079895 1439.861328 990.296753 510.559967 536.382385 1250.005737 1230.176392 1673.411255 642.528625 631.266724 1550.717773 1004.209778 493.305939 949.044250 521.117188 740.151611 1060.565186 612.048950 1154.510376 810.798340 596.706848 612.322266 754.378540 584.456787 411.898346 1364.395142 1165.810425 372.292206 214.433533 777.802368 771.399048 1753.409668 667.675110 633.914185 859.386414 1317.478882 1046.932495 594.946777 762.571167 659.719543 479.636322 476.332550 448.426880 582.511536 537.098633 672.207092 597.042786 1122.779419 689.149597 350.161713 656.037170 595.138489 872.427551 689.538269 402.191467 608.515503 996.064026 537.239990 905.599548 1147.479980 749.833313 646.794556 651.526611 951.944275 1806.365356 840.822754 472.866974 1525.089478 910.044373 809.130737 654.174133 643.406372 649.632446 674.403503 395.468597 561.596558 803.818665 901.645386 660.879333 549.471985 861.441589 487.952423 1132.096680 765.509888 1221.964355 733.316162 707.023499 1215.050415 1011.574036 866.635986 789.500244 373.252655 592.342346 793.863281 970.925171 234.131989 760.800476 843.830017 878.883118 1016.982483 940.084045 711.429138 869.015930 529.281616 594.668518 561.464722 
Conv_67_param_0 347.604736 528.451538 326.903351 748.458008 903.744995 603.163086 194.037750 642.885681 869.483826 990.921509 1061.650879 1097.941284 1010.880432 695.156494 975.284119 1141.194946 703.023438 972.486023 515.418579 671.480042 710.025940 430.613953 820.185364 545.354858 427.337402 595.975708 559.547729 654.155945 459.004700 486.490936 952.349243 1247.360474 769.768250 393.364624 759.413940 344.707886 486.948608 294.670746 442.299286 740.574524 957.643372 1177.104248 1039.432495 688.111328 701.994934 563.322571 910.610962 750.899353 1045.700684 494.741669 1072.589722 1170.642090 317.910461 639.776062 1210.704712 671.346680 735.150146 914.102478 153.069794 858.424011 916.022522 322.338684 376.476166 818.430115 
Conv_70_param_0 87.274315 70.072922 91.065315 106.055092 61.186989 108.795639 187.542358 120.701477 87.838844 109.355499 83.040253 100.911560 84.339195 61.284733 55.211170 69.888771 127.145195 97.752998 86.492050 91.565857 57.329922 80.696518 86.351967 74.630241 135.474365 88.582779 77.313431 86.098442 123.377815 91.403275 107.653473 73.854591 155.607697 119.220512 99.261726 71.442314 121.909317 109.410057 79.986748 91.520775 95.660599 116.721786 86.643562 36.888149 106.379059 61.808136 100.476982 33.955158 93.256065 135.572769 277.947784 127.636497 74.125687 98.304977 57.155693 40.697323 133.520401 92.514290 117.799706 118.815681 86.977844 108.238632 91.603882 91.270943 
Conv_73_param_0 266.300079 233.035370 168.829361 120.447197 173.328781 107.630775 247.821564 141.856918 171.769791 185.023926 130.743118 280.490906 312.720123 199.462387 114.556961 238.594894 149.117203 198.435440 195.108994 192.297134 154.618576 169.502502 187.487366 144.781418 152.756699 329.547577 214.882538 194.551575 90.307426 146.152420 135.518585 108.753510 172.353134 120.144386 145.321350 235.812378 166.713135 124.843239 113.191116 126.233849 366.656860 114.600418 138.372818 196.317780 106.452942 149.947937 223.687439 204.818405 171.450943 103.891289 239.251282 143.604767 131.730347 251.616501 169.154526 126.187912 126.093132 186.927643 134.081451 121.374504 93.736267 116.508995 143.125839 223.758743 
Conv_77_param_0 178.820038 108.152023 154.101486 132.087540 134.666855 59.394394 113.980850 123.506027 90.189072 155.373093 133.775253 144.408112 149.841919 156.745667 95.480156 100.034508 147.778122 116.535141 146.365067 126.899536 148.504166 140.745773 150.133575 110.757622 101.848930 224.323914 140.135040 167.689758 143.443298 204.814621 110.432838 114.182281 78.842720 156.561188 127.889961 106.422256 192.412842 146.616211 164.846313 99.676834 146.080887 100.147438 142.535446 146.674271 107.671341 149.304077 146.885666 68.912315 123.701370 97.302658 129.400970 84.330841 195.139236 107.941017 144.615952 105.284439 133.445511 158.280746 139.142502 147.413925 113.780800 113.744469 120.856163 192.606735 
Conv_80_param_0 113.935303 152.494156 107.932861 167.186646 97.035202 133.378845 81.410606 147.482620 77.649605 141.625290 80.027092 148.431732 103.842422 141.027084 116.150574 130.690430 107.012566 91.573975 114.006233 178.508163 125.737648 131.537643 125.669632 133.770813 101.135834 122.179008 79.198822 110.199371 57.553879 71.771843 81.768517 133.236115 92.845634 86.885384 153.366150 121.212631 108.962509 100.110184 93.286415 94.210739 89.798454 70.119064 164.184769 116.900520 84.684998 105.061592 80.604904 92.726860 157.271072 56.931152 130.377914 99.558754 124.569054 131.076553 142.727661 62.075928 148.404114 114.304131 133.174118 113.474739 100.638176 86.915939 80.924210 165.991638 
Conv_84_param_0 249.515213 254.963242 212.594681 246.816818 201.964691 287.519592 267.343933 291.213318 243.815704 226.752258 249.832581 151.340485 324.949188 114.863251 471.862183 178.647949 193.317535 147.007034 350.973419 258.988342 121.632133 286.089111 156.707413 235.324005 228.663620 238.015472 144.238449 346.093689 158.940704 255.140076 314.371735 204.413620 206.919647 199.394455 251.037125 308.671722 333.999756 182.540390 273.553162 324.401215 282.169312 125.483673 200.019287 215.495087 353.203552 217.975281 263.884644 265.174103 355.388062 360.091553 139.923615 119.746147 214.644638 124.770844 89.669418 212.016815 270.108124 249.109955 280.283264 325.700104 271.862457 287.316742 205.408493 254.929962 
Conv_87_param_0 46.635963 67.898758 77.304596 111.871597 48.612190 94.027672 56.556999 49.468216 60.619297 117.551651 70.431313 80.904404 70.009773 68.779411 82.311012 91.472435 151.731094 94.420547 126.345726 89.795067 64.021973 67.065987 73.362938 81.699158 93.835503 100.553032 46.016083 116.095634 24.501841 50.599453 60.383854 92.064545 71.551880 58.467182 100.901726 80.216698 77.980492 69.293564 61.605957 51.144756 80.771973 36.804626 87.906929 111.280579 80.542610 69.308167 91.643394 79.398964 109.911980 75.096123 95.452148 88.977180 98.956940 93.597694 104.511536 68.155724 63.717739 82.078094 77.550667 76.870689 98.649719 55.503700 75.107208 98.444664 
Conv_91_param_0 122.939369 162.730484 200.520126 178.874100 297.455780 231.510529 141.457184 170.242706 197.508499 148.491699 192.626862 130.254028 117.017746 159.618912 133.119812 143.869049 65.651695 220.753326 149.992661 158.351562 208.448929 129.837097 144.710831 100.256142 292.737335 135.212326 126.401039 289.303192 146.655151 113.026680 122.394745 217.857010 98.531189 165.416489 173.246384 165.610397 100.667389 85.205269 224.182327 191.934509 128.812302 213.207840 100.858406 149.658752 97.719429 233.051758 94.780090 159.592484 171.332764 182.606857 196.648285 124.252602 234.454590 84.698570 143.231781 111.060112 211.965683 187.563522 85.079620 133.508240 255.839615 236.975555 190.372269 139.521729 
Conv_95_param_0 404.771088 429.399384 464.517242 467.823212 509.000854 325.456665 426.776764 398.105255 501.695526 373.100525 762.430847 345.843933 478.429962 503.662262 315.127930 375.795624 582.088867 391.127380 475.644562 851.117249 994.194946 454.544250 382.246674 752.637695 541.678589 748.467957 370.384857 544.190491 324.214111 245.989273 378.563171 469.320862 641.331055 422.219543 459.490845 449.687836 605.452148 858.222168 736.707214 447.681946 626.886292 383.531555 480.682220 378.952667 356.556519 702.950500 486.831512 613.119873 561.956787 455.199432 894.878601 487.829132 343.296326 494.144226 327.760742 282.501495 464.303864 581.354309 605.229675 524.669556 334.181274 409.929352 489.004028 508.063171 622.730591 514.599854 392.161774 699.303772 341.710327 473.883209 663.593445 338.049805 327.508423 533.577881 277.199585 636.948303 490.014465 400.599701 375.458099 423.221283 539.519714 202.282898 661.547363 381.138275 414.176483 292.077972 404.412994 503.373169 404.731171 329.562561 1045.912476 631.863098 840.502441 412.696686 459.814026 498.550629 500.199402 958.957886 932.471252 172.292999 489.152222 373.928406 578.285767 393.736206 674.550476 789.068420 415.110687 470.542938 1021.036804 262.865967 408.080902 717.511597 391.953613 414.226715 384.155121 412.437836 327.899170 389.955688 298.494598 416.703217 339.958282 518.989929 217.089096 287.859589 1074.973022 477.575165 389.919495 927.353882 
Conv_98_param_0 722.251099 537.967468 481.145599 649.444763 467.161591 336.278503 605.041138 610.027527 476.951660 537.835510 726.169006 954.802795 774.682495 625.739319 524.134155 422.030884 705.516968 950.977295 551.467896 678.933716 651.926697 615.002808 624.492798 682.761230 299.616638 462.637268 627.466675 874.321167 747.458008 408.672058 537.995850 939.292725 532.173157 607.731140 861.409790 543.829895 423.510437 435.392059 513.924744 461.786346 515.338135 1097.151733 618.580994 275.484436 579.414307 490.731049 372.959473 765.088196 428.664612 610.600647 549.107361 475.938080 394.570404 424.664886 466.214172 1010.736450 403.659241 536.947632 764.553528 689.238281 391.855957 418.430817 498.346924 653.579529 577.919312 492.575439 591.165222 768.415588 869.902954 473.132111 625.099243 589.499146 445.937286 568.321533 530.524353 598.736328 309.006470 578.048584 808.834106 668.429565 842.183350 514.349365 712.175293 484.749054 816.165771 812.888000 548.707092 698.470825 382.176514 307.905151 491.773804 603.981262 588.792114 589.662781 570.642029 479.668274 558.008667 652.621460 490.565704 848.312744 788.808594 584.778748 776.944702 661.106079 1132.864502 727.687500 491.594208 444.330475 554.097168 811.140686 846.155884 745.017578 658.415466 580.104126 577.286133 317.106171 1124.696655 619.991455 498.162140 809.080139 380.913483 968.365173 661.558044 536.326477 370.863708 327.147186 626.202332 603.117249 942.698792 376.270630 872.982361 520.247131 992.000610 497.599091 684.754456 346.082672 358.449249 586.270630 562.911499 878.995117 564.662476 579.950012 526.999634 744.928040 714.597595 898.554443 515.911377 583.330383 826.499817 708.859863 319.380341 609.169250 582.986633 664.459717 1108.852295 584.409546 901.488159 453.514191 599.707947 315.197235 675.789185 590.990112 491.310181 677.337830 411.773163 443.247711 766.802795 313.819641 468.926819 631.905701 427.515442 931.103333 548.294312 597.705017 340.357788 386.344208 500.324310 557.340759 640.084717 511.682434 630.911377 477.946625 496.606476 616.952087 352.660217 451.846954 800.193726 262.243530 473.320709 531.588196 580.740173 362.883972 858.198730 779.919312 691.276245 439.350708 515.339478 1002.893127 790.610474 362.407623 481.182220 442.956482 657.332703 637.990784 456.833710 476.900909 780.180969 577.531616 652.128479 776.784607 457.950958 410.339417 604.833191 913.552795 631.879272 657.745239 391.878082 488.981079 860.769531 501.513367 727.089966 447.903961 839.119995 919.542419 550.694336 696.401245 433.280304 724.467346 705.010620 474.255463 567.584900 606.193298 656.789551 574.235779 477.579987 445.137756 870.158936 711.412781 825.176819 266.999939 667.653625 571.461731 412.340271 700.735535 676.966614 476.610321 617.820679 460.759430 287.814087 718.724548 306.526642 412.976379 590.296143 960.290710 724.467651 467.523529 
Conv_101_param_0 818.867859 1284.688477 472.384888 438.915649 1200.431030 502.182800 904.735901 667.441833 352.720642 271.730377 1208.991333 1102.450073 673.182312 1210.621338 474.708099 591.238525 574.822510 607.571167 479.467834 631.395630 635.378418 535.255737 1172.087646 628.833801 893.475830 562.699036 426.353485 896.011414 887.037048 1047.550537 718.389343 723.605713 620.237488 1049.804077 734.657715 647.872009 770.785156 603.243652 1322.546997 883.931030 542.395874 987.245300 319.707245 449.089905 529.829163 728.441284 875.320129 991.696899 1621.570068 1050.343628 733.138489 585.287720 815.796509 735.835938 965.118530 1240.390869 893.060547 830.163879 621.872437 922.022888 512.982056 489.347290 677.869751 602.146790 786.220276 605.060852 809.867493 723.240051 1025.572144 712.701355 82.419800 1111.760132 669.452881 590.392151 1072.730957 721.777954 669.772400 1053.830811 1272.677612 887.214539 610.608948 930.305298 268.085083 912.663757 1036.396118 791.448792 1181.499878 1187.356201 748.376221 829.816284 763.022217 1058.590332 645.186951 1228.120239 582.271851 719.902771 785.428162 533.992126 592.050415 487.378540 1322.383545 806.946716 492.024323 1221.959229 574.838989 372.819244 691.038452 818.069824 451.498962 1095.327515 1363.873657 453.075104 234.836746 835.729370 1130.292725 567.474792 407.554871 882.435852 523.611938 581.973083 814.956787 789.343506 746.306213 1076.576416 721.950806 878.855286 691.475891 756.230103 
Conv_104_param_0 84.113213 95.292099 115.015442 81.119972 116.071815 109.550972 52.849312 97.485756 112.088829 69.039490 77.380318 81.990105 55.459728 57.460026 95.525337 63.907734 88.570984 120.687347 110.051315 108.006371 94.913971 110.572891 98.939285 104.160217 77.300262 93.329750 134.759033 98.755096 112.315376 67.787643 57.592911 153.343842 76.315834 98.792023 113.064590 81.163605 135.497879 115.011108 110.677917 97.810631 115.030754 94.801582 101.152176 98.269974 131.627213 102.325691 60.490437 100.546356 71.775047 110.740288 81.009277 115.630608 115.284409 99.575874 106.531746 100.364258 70.238884 103.166672 74.935959 102.888771 81.667336 74.678757 82.569382 104.904701 114.518570 95.040092 92.962746 113.020241 58.502533 79.578850 62.585541 94.363136 76.481583 130.754181 114.213326 131.416519 96.672722 95.557915 56.536678 58.983936 89.837067 134.448288 72.972420 99.210205 118.636597 115.618698 87.940842 85.922043 123.310989 103.779793 88.555656 126.191788 74.305931 109.824371 148.010040 83.865852 109.816284 108.853073 86.395309 103.831429 75.104797 85.314972 76.146309 109.389595 108.734413 51.306206 89.596519 99.862984 109.141388 104.869843 79.605667 88.228546 110.249733 92.238602 107.261139 111.580650 84.209030 92.308685 79.593246 359.369049 108.911522 114.470131 83.435600 75.915962 120.910820 104.331055 85.549286 95.198433 
Conv_107_param_0 336.847260 228.607285 317.897034 285.657043 323.068298 326.125824 331.768250 292.517426 421.234497 228.825119 341.749207 417.048004 225.135437 215.662689 145.170609 534.131348 159.574234 337.797363 242.718201 219.235184 83.112167 238.577774 252.234085 296.304993 410.372620 257.187958 136.433884 318.565094 188.775574 319.000061 232.674057 331.485474 245.240799 267.691803 286.522186 505.519775 136.444427 252.808609 123.651711 393.409943 245.778427 358.780701 167.772018 414.131775 295.312653 266.981506 333.217346 288.559357 338.086609 200.864822 116.051361 258.822449 215.640533 264.451508 335.426941 254.295776 255.834763 350.140533 298.768677 474.562073 357.221130 191.382935 317.323853 230.453690 225.521439 308.117462 282.783386 260.729004 295.194916 131.339828 304.553009 377.122955 210.984909 203.872818 182.618515 284.730286 330.622345 388.747620 256.541290 572.946045 249.670166 224.528442 265.285645 162.451874 338.519348 286.833344 295.359650 237.684082 163.705841 147.889877 382.147614 203.252472 377.444641 296.118164 308.150360 274.285278 118.962364 113.733841 245.140961 409.447113 419.501068 336.180298 242.268723 149.488968 143.810715 253.951309 394.767426 362.433105 172.950256 328.218719 291.461365 231.211838 116.056435 230.627151 364.603546 227.617523 291.067780 224.820923 410.224457 199.516815 234.872803 285.714020 413.950409 530.136780 252.047958 246.396133 349.201935 242.580368 
Conv_111_param_0 175.236465 226.395538 76.704369 188.602219 82.607315 154.123581 147.749634 198.386322 154.355377 97.801834 165.361328 147.545654 101.310692 147.015747 141.015244 135.632446 137.835144 167.414108 168.627396 174.104065 162.205688 90.870934 206.017227 105.055397 129.921600 111.250916 164.404373 134.706375 198.996140 123.261589 142.889618 155.192093 230.507553 158.930771 123.397575 165.704697 131.432922 171.861496 194.323715 171.150009 160.678970 90.460640 175.571045 88.133087 189.493057 198.868042 149.746689 80.130119 176.418686 157.431610 106.164818 129.677536 134.144943 152.403717 115.404289 161.707474 188.055557 152.856873 97.197769 126.297150 114.186028 139.476562 121.083160 196.287048 173.819702 194.271378 156.478760 175.971191 148.260788 183.132828 99.559387 152.945038 140.735138 87.689301 127.707626 107.710457 114.371193 122.585732 107.449547 92.407196 179.435303 148.921112 170.628021 144.768387 135.009674 135.110367 116.943184 118.845451 204.234283 148.956116 126.390663 139.119492 186.256485 169.668213 131.598099 158.973068 72.015999 133.487030 179.087997 142.622421 94.569977 136.969910 127.613678 107.650665 184.270676 186.694809 108.387802 126.399315 164.837326 199.045654 98.004959 112.431526 157.211304 129.523712 104.975853 173.828232 121.638435 137.628250 116.586830 128.203598 177.951599 149.987457 186.749847 106.968246 117.922104 199.010254 132.721878 132.381622 
Conv_114_param_0 135.849426 113.899536 195.960785 129.127731 239.648285 125.851326 150.731659 128.736038 140.393875 116.177711 137.503281 263.685516 102.575966 180.050995 145.305389 182.452759 184.147949 162.633194 148.425446 167.743515 139.739182 148.573944 246.599442 140.295685 214.245392 105.228874 95.092857 132.746262 138.241089 157.454315 111.192024 186.768845 126.916046 144.383682 141.177994 151.644653 131.972351 106.035156 142.392365 173.587952 126.070877 180.875931 113.486954 147.538696 208.422806 177.674255 127.741486 242.458878 179.582626 177.316452 401.985870 111.412590 209.851074 173.194016 269.414429 202.261322 134.880264 188.083359 225.516342 225.226517 290.050812 119.029716 289.291107 164.993958 172.904480 125.660469 202.270859 274.162079 120.274277 116.316368 212.959839 178.311234 193.633926 182.008820 157.291321 144.868927 170.489410 195.164490 251.289108 161.212402 162.352646 166.424637 199.349228 208.889175 188.934540 301.617432 167.058395 109.186081 153.061737 145.993408 195.867966 187.812119 92.758530 164.253006 216.382324 141.612503 152.536774 189.381729 109.494347 171.831741 148.654556 248.903229 179.706451 34.636940 150.015259 184.679947 155.221573 199.593567 199.310471 149.079224 137.121887 161.972504 210.098633 191.684937 287.239075 149.945480 207.695465 137.466034 149.434921 157.748795 210.756989 170.363312 81.955170 121.017776 201.387787 191.345947 147.980835 222.833511 
Conv_118_param_0 414.104279 309.649628 203.965866 290.028168 330.176331 218.437653 154.799591 330.306732 211.438217 179.884720 155.870911 371.421753 310.181122 319.632812 278.701111 215.262375 268.375977 207.303406 293.946320 354.653503 225.130508 184.139816 282.139618 315.690948 268.680573 239.766342 316.670654 371.105499 205.232361 215.331161 381.216888 1101.034058 236.305740 301.154358 233.553772 236.672073 153.516525 268.276825 232.591064 310.144836 413.401215 248.871216 325.975677 372.836700 215.707535 348.347198 279.176331 217.757996 291.645447 218.320175 286.033661 254.415390 281.941681 311.335052 144.832962 236.441437 229.755493 299.906403 408.626495 373.321655 283.678589 554.488831 190.084717 263.740234 241.615097 260.980774 257.961304 302.444153 199.551071 227.183365 295.138245 178.154556 249.229309 280.613678 129.557770 254.095901 264.170532 232.713913 274.431274 219.731018 204.434998 304.328003 260.258636 296.051544 275.751862 218.371811 243.509644 338.881470 254.984985 349.515167 199.024353 287.835907 263.547028 270.561615 270.416687 398.018188 295.050018 337.611908 224.900116 203.440140 246.228317 212.051987 206.513031 156.076172 237.903061 288.622284 225.259354 337.196991 163.090668 277.805969 155.138687 230.640488 184.705429 389.322571 193.245468 293.783936 166.072739 285.773621 219.827927 168.527817 267.046204 308.175659 149.832108 189.280579 322.718292 245.139664 262.589081 262.076019 
Conv_121_param_0 91.967796 111.348228 100.433685 92.583961 140.636871 122.645325 60.838844 113.712181 163.013016 121.231796 126.906677 149.944794 86.727684 118.998962 103.333603 126.774605 107.620171 104.785622 129.731781 120.248238 107.730629 118.090363 98.514694 99.625046 107.206856 126.629547 111.518204 92.609581 58.604702 92.724251 90.160965 93.972733 106.551239 110.073929 114.350159 146.345978 116.640579 120.050568 115.129646 90.477280 109.726471 144.624802 88.954773 68.961678 92.027138 86.149521 87.054337 162.162659 113.252228 140.450287 135.163361 113.273239 127.163307 80.296280 133.855392 58.371658 114.710274 132.922943 147.259109 143.388611 152.739655 89.805992 137.871414 88.853470 111.085808 88.684692 104.124268 149.484390 136.980652 111.590797 110.524261 82.895760 111.994362 55.953751 134.103622 64.352470 68.336426 160.060608 168.245468 103.438652 83.423660 33.628830 133.418076 65.332001 135.209030 142.701416 109.983368 44.199802 123.186104 90.666542 111.681366 103.083534 84.087486 101.608337 128.451965 120.431412 97.881645 162.847229 43.896553 145.005219 104.319588 103.404129 93.268364 117.926933 145.556885 133.315536 94.818451 155.621521 136.471466 112.310715 170.590149 137.530151 85.760315 91.270576 132.314697 155.609467 69.005997 152.209839 125.722107 61.237080 111.829109 118.760246 106.341232 106.062500 151.452972 134.991974 81.449295 129.702286 
Conv_125_param_0 273.582001 247.601517 234.816605 246.509277 248.508942 218.400040 195.619797 185.056366 317.401062 272.246552 269.423340 163.842590 240.245773 221.238602 319.652283 290.257507 195.697678 182.098938 128.036011 227.693268 177.347198 136.280212 303.713959 201.410645 236.431808 239.804016 163.001190 200.460800 221.709213 228.772766 209.567017 350.790009 189.164185 311.665161 245.244064 204.136490 326.147461 247.947388 282.441986 314.140442 226.954544 201.654846 265.522247 411.262421 210.279144 213.515350 264.810699 266.930481 197.971741 233.971481 159.216751 128.761566 209.175415 256.552155 162.804642 246.375687 338.013306 82.685387 218.907730 199.833511 164.259964 204.747101 255.366180 250.299484 351.294250 247.455704 286.435120 182.004837 272.817535 278.554443 202.739273 158.264435 256.974945 274.975525 259.682800 370.518951 316.473755 317.646637 224.734375 164.266891 281.409637 190.446091 334.935059 208.443588 263.850555 175.225571 208.846588 282.459473 315.387482 200.701187 216.985977 220.222321 219.758041 293.393097 246.475403 293.414734 201.530518 235.585739 235.926437 178.859207 231.443176 185.209167 230.730698 277.280243 224.942245 207.689957 215.566666 109.543594 242.295837 278.001068 305.437286 144.820450 230.945923 266.318542 290.406830 251.173126 216.764511 112.216751 233.722321 338.339447 295.172424 204.709549 233.005478 323.099945 272.421722 337.397461 331.605408 269.344818 
Conv_129_param_0 429.839294 609.554626 515.834534 388.056396 586.362976 567.463562 481.185699 443.226562 508.890228 407.977234 555.877686 594.027649 300.041443 505.267365 622.082581 861.523376 509.521179 602.877808 1024.924072 417.237122 602.841797 268.293427 381.734406 424.397614 652.109375 502.605774 572.294617 783.350159 508.853882 624.618713 312.294983 399.556213 365.598267 557.413452 453.300812 624.247559 431.467834 514.075073 341.321289 579.526550 584.632324 606.786377 590.212341 603.676575 1073.960693 557.888367 467.192505 532.774719 807.201782 532.533203 333.171661 391.175690 423.614471 408.984009 494.426636 261.233734 565.379395 606.592285 497.904327 467.291016 473.705261 728.962158 467.751373 481.282593 663.041992 444.537201 377.114716 374.661713 214.195084 520.946289 620.199280 566.150513 709.603027 843.944214 405.898407 342.840515 447.749207 440.312988 303.321045 677.600891 661.111450 702.153198 660.278137 619.688660 795.069092 358.738800 674.658936 554.398804 764.062683 694.645508 733.382874 834.099182 584.614929 663.646118 559.004150 606.649109 504.725952 571.875244 803.714355 334.032349 345.175354 343.754395 606.561768 536.017761 596.348267 613.469299 938.786255 386.679443 486.330261 387.700012 605.752441 700.893311 637.684631 584.718506 363.706116 381.893829 602.538757 772.664124 453.981995 509.901031 383.153015 698.747925 264.049194 726.004639 571.006470 564.113892 482.947021 363.081818 520.732727 372.095428 1080.430054 446.387695 513.807739 359.420898 359.389099 399.635803 535.029358 688.546326 254.589539 612.660889 511.372589 716.499329 636.760315 659.577637 757.381104 526.227051 494.040833 612.518799 539.639954 636.594177 479.914246 538.898132 707.258423 611.441833 513.976501 568.643433 318.964172 525.776123 717.957275 736.476257 340.748810 457.420288 352.022125 389.259308 334.618988 497.147247 487.894379 419.698425 459.830139 484.538727 443.888519 453.888245 398.260132 703.280334 465.962952 425.857697 454.881775 549.216919 440.866730 422.721313 312.275940 569.118164 377.429291 534.458496 427.564514 451.258179 437.492737 555.619568 523.283386 807.586243 614.688171 581.317383 457.591064 976.703125 638.428345 289.409058 365.434998 698.753845 401.120300 588.403870 378.313171 545.629883 693.716797 359.973450 585.715820 607.202209 412.766541 498.102844 342.893005 437.994690 682.127258 644.206482 433.672668 482.553802 512.463135 617.525696 554.544312 622.927124 568.238586 709.384766 444.033081 623.627014 420.377533 585.035278 443.827820 570.109741 456.653931 632.192871 512.722778 696.373108 479.105743 556.045654 644.168213 572.367004 666.470520 566.214111 634.919739 684.805054 257.925140 403.587677 648.453308 433.450867 770.811584 368.449738 361.375549 675.429077 536.664978 482.442627 401.379639 461.276642 307.708618 449.645416 547.039551 640.852600 565.491699 445.801453 
Conv_132_param_0 1055.914795 907.964905 1040.520386 665.974731 1073.469727 893.614319 918.157837 1417.929932 889.078491 761.875732 589.910461 826.334595 612.402039 622.296326 994.608826 871.213684 915.844299 799.333252 1140.190430 822.065491 1005.829346 950.018372 938.878540 573.711182 984.804138 1044.349365 811.687012 836.373901 769.737671 1060.793335 930.089966 1095.746826 998.106506 1059.505615 1073.125122 1034.974365 414.262085 1143.952881 1024.808350 574.794128 936.995361 955.634521 857.416077 1146.050537 1044.512329 756.492554 1036.210938 758.267212 740.815430 1216.221680 959.789368 733.329102 1054.975952 961.910767 1501.382080 741.132324 962.593384 1097.011597 537.165039 759.397888 1087.931152 1271.286621 828.592285 769.796692 975.238037 1269.874756 1060.740601 957.498779 698.306030 1033.116577 1064.746826 1096.092407 872.889099 821.624817 1156.811890 751.044617 933.517578 1219.665161 1151.325073 1041.712646 476.699036 900.866760 330.267517 756.316162 1135.515991 347.653900 1069.317993 736.614441 758.568481 1032.370239 657.592346 768.214355 1011.050476 922.914429 1215.684326 769.030823 1117.867798 776.071716 1174.161377 576.153625 1019.654358 756.559448 871.452454 1141.577148 1198.782593 660.243591 593.039551 973.695801 1239.048950 464.499329 988.023010 864.208923 1069.230347 977.630432 1183.828369 422.214691 1227.605103 973.908447 765.658997 765.542664 924.988708 1188.064209 1007.894043 1215.628906 1168.185181 921.084229 1234.086060 902.300049 599.422363 416.161652 940.396301 894.723206 761.215515 746.177002 805.582703 777.471375 874.280945 912.721436 966.450012 1075.894531 959.710999 1241.266846 1011.702515 978.282654 960.361877 520.208008 1028.079346 943.539673 691.472473 545.678223 959.143738 1015.833618 1188.769775 646.788513 733.669861 990.316101 1150.090576 572.849487 1117.751831 910.663208 1065.968872 1768.367432 1131.430054 549.433411 1062.854980 1358.495483 851.922974 823.325928 966.865967 642.539429 1160.951660 1288.645752 1207.057129 1022.474487 705.133362 1238.983643 968.716614 952.877991 812.987000 876.817322 643.659302 1063.554932 1095.680298 736.157654 516.797607 1079.121338 896.807007 1144.830688 802.605591 1014.505188 908.584473 723.369263 884.590820 1267.668823 1495.942871 629.032898 725.998535 1009.741211 1330.020020 974.432434 1000.613647 1029.213013 1134.538330 1054.592529 1286.760986 1006.712830 935.760864 832.988953 971.636353 994.844971 822.309448 1063.749756 765.684631 977.540161 988.528809 663.280396 1099.621460 548.083984 1295.265137 836.376526 1137.109497 1076.064575 1096.854370 669.088928 972.816162 1095.369995 1049.965210 866.461426 1179.056030 1086.960815 1220.424683 1220.957642 530.130493 1087.244873 631.706360 1127.438110 782.675964 1059.169556 1226.633789 1006.995911 1167.233521 917.507568 1126.370117 856.192749 777.875916 865.928406 1051.256226 703.157349 813.983765 956.229797 1225.346802 1157.381226 1098.357910 809.335510 1133.965454 1192.702759 828.037537 1125.067383 880.748169 1291.026489 1089.028442 1170.509521 990.837769 1142.748779 1093.792114 886.266174 1203.928833 926.392578 716.215332 935.826599 1113.189575 515.158936 719.193542 724.602844 905.850037 1138.622314 1042.736572 806.166626 1052.977783 615.159607 1160.976562 847.019531 907.247559 743.804138 1033.637451 1023.734802 1024.675659 1054.349365 1192.417480 760.703369 1016.451416 1153.805908 1245.187866 726.420898 1062.286377 1563.589233 669.474731 817.826233 945.544434 879.417786 733.317139 686.671326 972.331909 924.306458 980.854004 866.136841 762.868713 971.448730 809.985535 831.834473 1061.623047 906.065552 1021.818054 927.404541 1220.498901 1144.949219 817.351562 839.096252 936.378723 1222.850220 828.214661 905.969482 1113.235229 1092.415039 1190.342407 815.373169 634.301270 793.984741 1357.229370 809.468079 787.588989 903.014954 959.463257 476.321533 1148.006226 1099.922241 712.143311 702.825500 1082.758057 721.632324 722.015198 723.953430 777.710083 614.936768 1168.852051 1038.211304 1148.661011 821.505066 537.526306 1031.084473 901.004700 1216.235718 640.023132 1311.489502 712.334778 754.559143 776.624878 810.752258 1258.990479 878.712585 1148.207520 1267.894409 1049.054932 924.959534 586.213867 825.285156 1146.928101 878.883728 507.457489 959.983948 1109.217407 585.300659 776.542297 918.010986 1413.427124 969.638367 1101.427246 953.174561 1237.878540 1051.614624 973.942627 1152.868408 1089.179565 626.504089 1246.271606 1162.441284 998.946716 736.460022 812.311157 1239.760498 1200.812378 407.681183 714.316223 1306.901367 777.631409 1035.561401 621.129761 574.709290 879.342102 1164.701294 838.761841 1004.171204 1082.283936 1391.999634 1032.375977 707.299316 874.610962 922.699280 978.937744 1337.937134 1448.189209 1210.610474 1064.776001 734.994568 1068.905762 948.056763 1151.697388 743.277649 487.069275 798.649780 1053.788818 732.517761 1025.181030 855.204224 783.394836 554.756226 1014.184448 801.116089 1171.372314 953.180237 1089.577515 1120.433838 804.700684 957.652527 1015.164856 1141.472534 1261.533447 1336.377808 1102.652466 737.865356 826.590027 893.053223 997.169128 1052.085205 779.743408 834.645325 592.467773 1277.125122 1186.462036 559.264404 1240.565796 675.430176 809.315613 862.658264 635.816101 1030.426147 958.640564 843.504150 1674.243530 1006.413513 877.511108 1180.511108 897.389221 820.772400 1184.804932 749.975769 780.655579 491.541748 847.280640 941.240662 1173.632935 584.943726 891.941040 918.533875 1254.619385 1077.620239 654.589355 1039.173340 962.906372 882.887512 784.644287 1185.541748 1029.467896 1179.727417 1040.061157 817.989441 1092.884277 1228.956665 423.930817 620.174255 1157.470093 820.967346 1222.838501 691.837463 1204.112793 880.585571 1089.717651 1021.662476 861.472473 1261.754883 768.719299 711.321167 896.260864 1123.871460 1084.801514 1075.077881 1052.933350 1043.470703 758.306152 733.323608 949.605896 868.320190 
Conv_135_param_0 687.985718 706.215271 638.869568 416.903290 571.794434 396.807312 692.523132 644.630188 702.953369 570.750183 583.393616 472.515411 585.297546 608.498596 840.029663 828.388062 847.324951 314.049225 512.132874 721.780396 671.472290 841.077881 684.985107 640.510925 664.887085 576.075012 392.444885 752.489380 404.085785 650.299438 374.836823 661.746521 870.041321 915.309082 903.694946 451.698669 821.274353 698.277283 509.358002 709.914612 520.257385 810.911499 747.263550 594.768066 309.837219 769.818176 470.887054 782.381042 373.199036 776.113037 453.161438 700.774658 809.703430 677.156250 303.853058 782.115601 703.855286 497.244415 572.098755 655.264038 830.566101 575.165588 459.031799 707.882568 667.372192 617.018860 816.577148 885.638550 835.811951 618.871460 793.408264 692.888916 674.214233 885.939758 704.433777 675.082153 529.824951 875.157166 414.052979 260.612793 465.735107 715.449951 334.090515 680.462769 713.171692 886.769409 677.002380 578.483215 617.140442 677.829346 467.257568 745.501099 733.103882 763.421753 669.991394 744.777710 689.710938 871.001587 594.225342 345.653900 549.476562 668.393250 717.755920 563.244812 659.200378 739.305359 487.445007 547.478394 659.337280 344.102417 789.289246 804.070557 691.824524 448.081604 607.416931 605.210022 634.557190 938.454346 782.246582 718.017639 781.243591 857.931274 822.620117 879.590149 658.563049 618.935303 832.373962 715.012207 684.497070 633.148804 731.641785 408.616760 785.051331 763.592590 720.844116 541.296631 363.269623 507.149780 426.210724 689.620850 808.044067 668.398682 844.856262 694.305237 788.732117 720.133057 237.827133 432.573914 760.068237 756.084717 443.977509 598.922058 847.177795 647.416077 329.647430 583.862915 871.234802 922.357666 693.572632 628.133301 421.657959 863.663757 553.656860 676.299072 824.989685 773.689392 766.562805 774.234619 671.627380 641.187073 324.158661 751.450562 782.285034 834.916992 908.167786 556.910889 690.724915 716.015320 806.064880 470.358032 596.290833 868.135498 626.167603 809.666809 686.011536 558.588501 240.928421 624.100037 607.318115 791.434387 617.161255 812.838684 763.771301 705.814148 787.349854 691.555176 666.006653 822.405945 485.187988 875.642883 622.701721 428.454651 752.168884 695.384827 853.126831 406.557770 643.355225 770.787964 432.574677 745.018799 408.710022 824.162720 614.858093 530.075867 924.318909 684.145996 764.228882 649.965393 536.158447 809.528137 625.993835 766.414673 519.399414 775.082642 619.660522 763.851746 811.899048 589.582947 604.087891 724.610596 522.815247 850.497986 341.902649 800.704468 787.624634 463.925201 469.322693 697.894043 650.817017 657.147156 289.492065 640.438232 829.875732 715.839294 479.927521 268.178589 827.712341 781.600159 648.907471 765.017883 595.319153 435.135498 668.932739 410.311005 556.536194 805.150757 
Conv_142_param_0 1080.559448 1397.394775 1772.462891 733.786011 1001.846436 1062.435303 961.482788 781.777100 427.168243 1251.912109 1043.067627 1013.662292 1205.609253 450.927856 774.298706 1350.266724 601.360962 1290.726440 1256.299072 668.686340 1082.865356 623.980103 1676.283691 447.442932 1045.843384 1580.729248 1201.570801 819.057007 972.889771 982.443359 1026.097778 1126.138184 709.027527 1027.974609 493.466614 1185.364136 893.268677 330.203552 520.885254 1010.682251 1613.443848 1038.529541 980.277283 1081.646973 824.698975 1437.264282 1432.003174 734.756775 735.396240 1294.798950 644.281982 528.912781 1372.010010 1331.873779 991.260803 685.082031 807.206848 1295.231812 1560.234985 907.437134 796.207886 807.717102 1205.291870 768.192749 466.071838 670.131714 1007.867249 727.556519 1517.446045 345.989319 1300.547363 1216.655640 1183.126587 1283.446899 1225.520630 924.843384 1414.609009 859.467468 493.905914 1218.021729 1330.697388 1029.000732 801.676025 1473.421509 661.379333 1662.842407 1146.118286 1235.607300 1620.069458 1268.019165 625.423950 1477.371826 769.288330 870.699951 618.946167 671.654968 697.756653 1127.320557 641.276123 1072.723022 862.991699 816.241821 703.396790 1082.454834 1530.514893 1336.987915 1189.720093 907.015137 1416.265625 564.154663 893.089600 981.637695 1265.378784 914.372803 781.256775 1135.016357 1361.721558 994.203552 906.659851 735.677856 724.746033 654.956848 1310.573242 562.269714 916.413269 1159.259399 1075.454590 751.759521 1036.752197 1367.100952 1386.893677 776.536621 1047.911621 694.864319 774.673279 1463.966553 729.375793 431.440094 1689.276855 853.256897 1420.256348 809.819275 1077.716187 1018.372009 827.969666 865.890930 601.298035 869.679382 1011.509460 1202.416382 828.083191 529.456238 809.321289 680.354309 857.562927 1013.906006 1298.394653 425.992371 918.496643 1062.494995 739.166321 839.734009 894.974670 1901.425903 1341.743042 1462.603027 662.269714 510.883331 887.289429 674.419373 1051.232788 919.626648 1101.011719 735.746643 781.012756 736.846313 928.955994 574.906006 1002.499023 1305.691040 1026.359253 549.781311 857.140137 1566.893799 1347.969727 1287.373169 1458.841919 687.120728 1351.023438 1116.224609 685.482666 588.428711 866.964722 1340.357422 1092.792480 1066.507080 996.237244 325.790100 1166.834717 1087.715698 913.551453 320.283936 1125.820679 854.656616 1758.494507 807.089661 358.155121 1376.651733 1093.522461 1564.297852 1394.477417 1075.563354 904.711304 1231.408447 1528.870728 1287.639282 530.231628 1048.631104 1131.769897 1590.419800 415.534485 836.728638 269.628601 416.835999 1071.794312 1403.272949 649.177368 1045.988037 1146.897461 451.105042 1344.735718 717.359558 1161.615356 1002.713013 834.055115 656.644714 459.938690 1529.363647 1528.697144 1072.041870 1190.464966 797.272095 572.498596 1102.167114 527.716187 1995.060059 1262.091675 1141.658691 1566.931274 1016.573853 1123.940552 1109.580933 1420.736938 1187.846802 1141.067261 1332.285278 1344.308228 1433.565918 1153.358154 1259.024048 523.985352 1481.561646 1233.460938 1072.960449 950.903564 2634.317627 707.174988 856.399353 1241.297119 1149.594360 967.188538 705.223938 1086.082642 848.913391 1291.654785 602.662354 1671.418213 602.566040 1649.867920 994.680542 861.934692 801.849121 641.664856 749.075439 414.292114 1374.623535 1075.016724 698.756714 1241.010132 538.095276 367.813049 610.504272 599.746033 541.007385 930.171814 1342.177490 732.350647 1154.630127 1084.061401 774.104126 989.909058 462.237061 979.108765 855.500732 1012.232422 1007.859253 871.346497 1226.833252 1229.993042 1508.325806 1484.258789 1152.113770 631.432922 523.096069 573.497925 901.779724 884.204102 815.399780 1067.253540 449.455200 1291.001831 1092.562866 655.137756 407.720276 1430.700073 1086.329224 607.953857 1510.080322 1018.480042 806.695251 1077.470459 735.849365 833.483215 730.829590 854.140015 612.875793 953.818054 1245.660522 886.153687 1367.855103 182.619888 1180.922974 1116.845459 363.169708 811.134766 1031.205933 1138.117676 993.957520 491.693024 548.442139 915.649353 1191.132324 1048.967773 1389.894165 608.591797 1761.585327 1006.878967 953.935364 323.406189 1056.265869 1172.230103 593.317078 854.795654 574.367859 818.188416 535.164612 1669.264404 1009.896545 1313.370972 1468.388306 711.729492 985.573730 955.082581 1337.527100 672.725159 884.742188 980.133118 1457.945679 985.020691 813.604858 1055.083130 1588.090332 1047.238892 1159.182007 1139.323853 793.908752 739.880127 1530.344360 1099.317993 1359.705444 551.814087 594.304443 584.629517 1088.715088 1292.013916 984.352783 1094.041870 638.118591 782.021362 1571.851562 741.905762 366.770233 1093.764282 597.885742 960.476196 1011.278137 753.328430 1267.902222 562.354797 791.108093 858.044678 1203.783081 1377.552002 394.914429 1147.095093 513.936096 1418.697876 1069.444458 1123.501099 656.735229 1129.115112 913.988708 681.337952 855.218262 1096.635742 970.245850 865.766296 1330.973877 388.311523 1004.872314 1060.395630 1015.153259 1043.296021 843.962891 411.451477 1084.821777 1224.765625 1130.741699 641.890503 1286.840698 990.236389 993.184326 880.942566 466.996063 1044.638672 1040.294067 1434.155640 549.888184 985.581848 716.129395 892.101868 913.676025 1007.754639 464.798187 1010.107910 961.498718 1115.174438 1061.944458 888.635681 768.123657 1134.703979 546.603027 710.060547 1351.432983 580.724731 759.144653 958.064270 949.300415 1030.708252 1301.739502 1231.218384 733.355713 934.782166 957.227417 682.591187 1159.814087 825.157349 941.770752 577.428406 1288.378784 1139.363037 990.797546 1153.400024 1262.955200 895.443298 1531.585815 827.158691 970.123352 725.296448 1226.811646 1143.668823 834.695435 283.023895 1257.745483 1124.866089 1181.933594 1205.949097 1146.240356 842.476990 1305.755371 1388.449707 1644.931763 775.143066 924.775757 1609.602417 584.979126 1482.194702 545.694824 666.423767 708.150146 938.684143 1244.476562 
Conv_145_param_0 304.070496 370.765839 240.231827 320.405762 164.608368 306.001190 336.090820 170.627197 411.337341 244.720047 199.852310 330.837494 250.749542 203.021118 287.640717 278.458801 359.043488 293.685394 257.703430 165.991547 257.496521 277.747345 295.602417 189.038513 211.019302 161.823532 290.458771 368.159546 361.860229 273.521423 239.487320 124.839256 164.510086 277.720337 293.797913 218.362015 404.166870 231.746445 273.365112 245.676453 79.219063 310.262695 241.862457 223.450623 178.028397 117.211906 400.573486 377.823639 361.343506 85.919418 368.887665 319.059753 323.964294 221.864044 275.227325 305.645538 280.330627 349.525299 279.020599 179.984390 172.307632 172.683792 143.254745 324.180084 286.830261 179.038345 133.807358 310.323334 200.434265 92.669525 334.455353 301.425201 311.899658 432.222473 288.675720 308.056702 271.230408 222.645798 238.456619 235.658615 205.036407 263.495575 201.217712 252.365250 232.958038 113.753799 275.876831 300.988800 385.594299 241.706100 395.694122 353.045898 258.443542 210.244766 226.932709 327.724701 104.565041 262.807190 154.266571 291.747101 243.442810 389.314362 321.736664 261.368011 267.332001 134.014023 220.383362 415.442078 230.485062 339.734009 329.693848 334.540619 270.670898 303.579407 341.275085 389.801331 362.122406 391.858765 285.591705 394.894135 218.642334 215.520660 127.394829 364.538300 251.233658 256.502167 246.157715 299.889221 216.524551 121.489792 247.413605 103.828400 234.749084 204.511215 222.781281 218.207962 286.606873 199.813950 297.634857 233.481857 308.903046 290.211090 190.659561 288.366821 306.732178 311.214172 268.081879 213.484360 321.166962 349.827637 237.464813 290.892548 290.695312 344.806366 299.435638 119.278755 282.416931 188.161606 221.716415 249.375443 209.484680 120.656075 258.428589 119.130394 316.388855 216.293152 336.265869 404.303253 343.438599 223.033691 371.348480 445.816132 185.208054 235.734726 353.688354 303.117767 321.789307 297.733948 383.096863 148.540604 193.978943 271.461243 338.584686 177.766556 212.798874 399.414246 303.770691 346.696899 154.151505 326.157104 303.913452 254.613281 193.402435 301.570404 240.254181 310.665070 252.906479 259.370575 156.459183 229.320450 277.160065 242.328110 482.268524 133.889389 414.288452 241.382111 187.158401 290.838776 366.546082 282.485199 360.844452 334.283478 124.414795 372.933746 283.186890 357.007477 361.798157 287.682556 298.625793 113.378532 198.741608 208.056488 292.003967 199.432953 265.472290 202.859802 425.586884 232.011002 384.073273 98.069832 257.211853 337.558899 358.113647 343.601379 187.658539 229.884628 269.479614 310.286652 133.891617 241.984726 343.958557 272.948456 356.746185 301.825470 251.984573 119.250092 335.296051 161.237259 348.081177 274.290405 316.563416 327.776520 295.050079 300.074127 176.480347 245.565826 
Conv_148_param_0 356.129974 200.024902 359.982452 244.671967 154.373245 254.427887 358.508148 239.274719 188.484283 364.673096 383.443176 138.149445 262.531433 241.037933 331.502411 278.582550 206.746017 477.219635 196.706970 294.677795 276.646851 217.901947 400.660156 279.324768 199.398499 315.861511 323.650238 350.341156 371.074554 249.464294 376.576080 163.803772 424.125671 283.944977 315.574463 199.961578 251.763321 175.409592 309.245758 341.011688 398.754242 199.201492 287.647980 283.181244 169.716919 431.351318 246.435638 259.656006 381.825989 338.025635 251.765335 285.953735 250.127121 309.919922 230.279343 370.699738 347.810730 426.752777 300.597473 183.114487 227.779022 334.110931 181.841019 343.815186 233.217072 201.764816 292.322174 164.038193 386.904877 229.999435 293.547058 261.794128 341.618958 318.316040 275.428009 362.320892 313.257690 309.040741 279.939545 357.227478 297.848633 246.156403 239.280167 265.571777 267.657867 310.440582 172.937607 294.512299 373.684174 346.573822 317.533142 415.120667 343.379883 395.348877 404.100128 284.670349 329.694641 403.706635 294.839996 416.770386 306.950897 162.588913 150.662567 230.253723 457.943939 438.886566 165.505615 411.647308 261.427887 322.424744 294.132751 452.307465 243.554794 249.313202 140.074738 339.398773 275.606323 339.585968 347.668365 283.017487 361.570648 335.561401 288.700256 371.939545 363.199829 348.931610 342.285370 217.722076 435.597321 268.900208 319.789154 365.535645 325.409790 148.667725 313.120972 232.891449 396.172089 409.653931 406.591278 272.805328 420.695679 238.273865 231.126450 277.396637 298.428802 366.697418 293.543182 353.960022 362.805847 256.977570 416.724854 412.800079 371.792236 334.479156 389.200348 309.496063 218.101898 291.235443 428.354126 216.680237 357.690887 249.357437 256.186249 325.053894 301.038452 380.356781 257.755859 305.463165 359.239807 359.979980 419.768707 238.790314 288.865601 254.483414 306.115417 269.093658 410.879547 324.402802 277.158569 310.896759 279.686401 249.870560 228.007217 160.489441 338.780518 378.930969 293.821655 254.065277 377.529358 240.665359 308.046722 175.009354 368.710907 236.039429 310.880066 432.384430 365.212555 276.640320 321.861572 351.884583 390.453949 306.343231 227.578140 379.072479 399.124908 162.831772 294.138336 250.474152 378.427094 348.117188 288.070770 363.991119 264.896210 382.966797 340.429108 312.067627 302.819946 354.293213 379.559052 373.187500 372.847961 349.240662 241.998428 340.608856 257.657471 323.985504 266.632538 250.006775 223.937363 201.438553 273.473022 249.120789 218.254242 428.535553 296.819977 279.202026 250.117020 397.407227 277.653595 348.780365 454.481293 273.315765 242.649139 408.098999 228.296951 323.922607 311.251404 331.367157 342.776062 266.246368 199.787079 224.229889 335.981903 440.030212 290.757812 262.045135 
Conv_151_param_0 156.617737 422.337769 242.754105 174.380630 233.507675 307.611176 219.979141 178.939194 244.770538 388.639374 254.067291 223.886444 170.161270 213.360153 170.645172 150.206253 183.890915 230.018433 155.035278 278.306396 176.316696 175.798920 158.304794 255.618820 164.871964 282.290222 237.081070 132.028946 212.199799 350.575165 189.469894 192.854904 163.199463 231.938248 227.008408 228.853668 241.632401 270.091278 257.176758 356.832672 153.327560 145.037659 208.213058 199.243546 289.471344 224.445236 160.132187 238.774048 188.346497 215.107193 128.264053 125.346321 262.791351 313.138245 103.072830 233.151718 131.613953 386.945862 231.687546 212.717758 209.933365 156.116180 246.119965 144.783203 243.541321 125.014557 151.551437 319.081238 229.099030 350.882782 211.669861 263.875092 379.588593 134.181854 205.727249 161.133743 149.000229 152.655746 114.516518 244.988998 296.160370 94.897766 180.695389 232.550354 198.600601 274.735474 263.687286 134.066269 170.418503 300.037567 267.145447 351.291168 303.018677 230.470001 106.223381 131.620911 292.237610 227.063934 319.088470 269.752380 121.124748 173.555511 315.619659 94.714096 294.629974 165.318024 188.635239 172.299789 121.396889 366.961914 317.977814 256.071289 125.393410 172.357895 301.263702 149.100571 220.474213 217.921249 172.700592 310.788452 262.254669 98.412079 250.644012 379.883331 175.448669 179.539932 229.017197 157.290863 226.447632 333.323456 154.109192 152.867126 200.483826 93.021790 301.078644 104.282898 145.563980 163.470718 171.722672 234.064987 181.571243 226.615860 144.951340 365.463440 233.371994 222.082840 327.609100 307.682220 181.317245 123.357086 160.764862 99.468262 228.849640 204.232803 158.847031 206.649307 323.118225 161.490311 221.377960 164.408279 176.364227 340.626282 241.942566 202.867508 226.468597 294.297119 94.582359 235.257294 158.107346 309.672760 290.837097 221.723663 268.869690 360.767181 261.858734 214.682327 348.079285 220.691177 111.853821 190.918396 177.710907 147.625977 193.728607 72.234406 295.427765 217.532791 114.867859 360.855469 205.232666 305.610809 154.826874 263.014435 252.261658 273.905426 218.418015 350.034760 180.412033 179.515625 339.522308 172.563690 169.373169 136.306488 140.698715 205.213470 113.331886 176.078888 157.002884 293.932220 263.919830 216.076294 375.683167 101.307465 171.024490 171.453430 280.698364 213.605225 153.856155 219.088379 203.058975 243.211533 170.237900 136.721695 262.912018 159.137100 317.790588 161.867035 123.244385 180.335968 198.768112 169.774368 213.820297 136.417709 101.506020 289.594940 312.403076 189.007126 220.211777 186.849335 299.834045 265.427704 133.592209 198.209335 351.808990 180.869995 248.568558 138.225769 142.928131 241.530121 141.076797 190.000732 232.266312 185.626190 223.018066 128.614899 139.039688 147.363602 
Conv_154_param_0 353.591431 265.350159 321.509949 387.599030 336.699982 337.836273 214.479324 354.049622 426.204926 380.717102 401.039337 304.803619 373.331604 429.311584 324.901581 241.078491 331.079041 329.910065 159.706604 319.606995 356.348999 426.893341 371.038849 283.307983 229.038940 330.783112 258.966522 215.045029 228.591827 366.820312 287.111115 336.731476 313.832886 175.258804 340.748657 260.126099 266.746735 347.624725 306.893860 140.633148 308.740479 292.251648 221.690613 260.533081 222.364624 256.450836 223.189865 383.721924 232.214401 375.981781 323.776428 291.249878 277.256439 146.661545 374.029449 287.632111 321.226227 209.105804 244.449509 267.956940 308.041687 363.874359 375.201111 288.277374 215.532013 328.752716 319.568665 462.250732 199.347000 372.272156 283.387878 221.709229 266.048248 348.666412 347.283386 299.389008 294.766846 339.140503 391.385559 332.455933 353.957520 118.148216 270.996155 194.932617 285.474762 225.721832 288.761780 325.927979 283.862610 254.333084 316.974060 288.539825 280.682312 278.052856 334.415985 216.684509 351.819244 393.635132 312.616364 379.511627 317.824249 362.537872 330.755524 196.987823 311.035187 219.999146 268.863617 324.921051 436.170624 169.020981 355.532837 354.192963 266.795166 236.447708 407.985687 335.113434 278.775055 298.470825 312.140594 358.447357 323.749084 269.242950 395.855499 304.691467 211.554428 286.702850 202.134918 402.597473 379.762115 276.097687 299.021332 211.988464 293.476440 314.684692 373.172211 343.479218 227.606583 200.635651 313.334259 344.733459 404.532196 345.076874 278.093750 333.594086 376.582306 434.785156 372.286743 373.733643 363.473328 222.645355 244.579224 250.187195 278.541931 130.904648 448.458099 397.526825 331.750854 329.322083 378.628937 243.251877 391.791931 226.162842 342.915192 315.364716 344.115295 229.615128 143.577133 249.886261 329.755646 310.557465 317.647522 223.597595 342.505432 341.253662 416.475769 263.127075 366.282654 315.994232 324.256958 229.143753 250.932434 233.893219 274.460632 345.752197 240.075623 345.272705 353.833862 235.244766 316.548035 314.077179 363.998596 224.549332 382.466583 161.832565 372.475555 294.956512 317.558990 303.339294 380.623169 356.350555 391.408234 368.135956 180.170746 272.464203 296.622589 320.467163 311.191956 298.066711 255.322403 334.481689 123.645752 407.921814 338.417816 333.748688 304.760101 381.805634 213.617310 209.515808 390.935516 233.663116 234.563431 215.237335 422.927216 415.264984 568.321777 222.461609 302.439117 344.050842 374.632507 323.575775 339.937927 330.025482 345.567261 248.653687 332.222473 275.610809 395.747559 417.666718 309.920410 208.982666 218.061340 297.270416 260.805725 226.686478 341.744659 394.464050 411.840820 344.049469 353.333252 492.602295 404.717560 336.695862 328.547424 208.950089 338.708099 358.899261 
Conv_158_param_0 449.649109 391.162994 284.358826 401.412140 395.089905 370.049591 385.355988 211.486267 517.525696 439.092590 430.975311 368.023254 436.226135 418.904999 358.401367 196.452896 214.541000 294.240295 190.246979 458.286102 411.170166 391.689087 336.238037 288.174072 227.286331 379.124237 380.531677 186.499573 392.337708 383.310822 369.292847 234.560181 373.797333 168.741135 182.941742 358.745483 446.144714 275.275909 494.636597 463.217957 158.656967 364.022797 432.791473 591.736755 525.093750 567.337463 399.233795 234.168594 394.798279 394.347412 283.130066 428.247711 422.526794 204.852676 448.883575 399.584473 446.088196 317.175110 435.792023 331.141602 317.242523 310.888763 446.533081 125.709900 382.114105 264.156097 346.951904 460.979095 377.393341 356.856964 324.389740 409.814636 232.344727 276.667938 407.610931 345.352692 236.902100 455.718964 425.391479 413.106659 369.752838 384.366882 420.524506 462.813019 185.089386 363.946594 325.994843 418.506714 368.095490 480.993591 322.025604 358.773865 489.339203 512.423645 421.977966 303.074982 319.225830 331.552521 391.945099 294.270905 286.765015 329.905884 347.235718 401.982147 350.708679 346.839081 372.975342 372.949921 327.241394 313.159180 278.101288 459.431763 262.195618 506.746094 230.920029 404.960327 371.060577 422.231018 347.869202 433.404144 382.529083 423.813019 199.750214 256.196442 480.117371 430.637390 521.886780 289.426514 466.096008 356.199097 329.674408 213.512833 493.459076 476.575409 353.481903 311.656586 387.870117 387.904541 145.273163 396.770538 395.545441 474.156342 411.195923 366.190369 217.184219 176.387604 284.675049 310.443146 262.582825 489.341217 222.970169 214.980255 272.265442 410.050598 393.281555 352.495544 335.088776 325.777618 283.944885 329.425171 420.801727 342.583099 376.281464 399.880646 288.367828 395.950500 334.718414 278.113708 343.896881 185.361237 225.138977 340.341705 418.297729 254.227859 422.411652 394.604156 339.221680 421.898468 402.287537 412.118896 357.431335 298.011230 433.505859 476.201538 364.379608 399.979401 358.500977 369.777466 444.112183 315.100739 432.229858 404.623962 348.260315 455.295288 306.011597 423.227997 197.552017 494.053192 417.234039 398.332062 343.957611 405.769135 243.128250 532.453491 313.628723 285.480988 390.268829 315.317871 416.874176 272.825500 357.955048 350.541107 319.883057 299.345428 397.617859 365.553284 466.458008 353.669312 426.125488 259.964386 332.321228 134.528107 378.823029 474.501526 324.997498 341.519440 293.498779 351.950073 384.533905 422.983368 290.619720 436.128662 335.651855 520.638794 430.159576 412.424652 454.832489 219.651825 318.332428 272.295746 402.018372 374.153900 482.934418 286.069092 420.353973 376.157135 397.982574 244.166214 506.335449 330.997894 364.479675 339.599518 405.896942 360.022522 547.829041 453.027313 452.661743 208.172241 168.927399 464.601471 214.304306 195.087540 213.693710 357.261353 469.281738 374.284912 368.978546 404.303375 356.522430 407.698578 335.502930 369.404114 407.747864 355.427399 327.521057 336.627563 229.243774 469.102814 365.010315 194.666702 375.487335 482.517792 356.950439 438.572174 456.384521 356.607788 527.506836 216.115906 361.784210 134.767151 281.810150 388.274139 445.474091 313.137634 474.707367 262.832123 336.063934 203.393463 521.751343 301.811157 106.202156 395.261322 272.666199 319.187683 397.346527 400.127655 345.428436 314.423431 417.272888 500.644379 442.436401 428.155273 569.339966 381.894531 218.074722 380.527252 389.170135 424.374878 348.615265 536.031006 420.405640 371.584167 186.545990 451.799774 488.338623 321.135681 490.738312 261.531036 336.202362 169.877823 360.957672 401.308655 395.731659 260.750549 426.096039 277.958801 425.222046 352.816254 242.020370 402.433075 255.829086 282.672852 454.821899 453.104248 594.427368 503.263367 378.417114 352.718353 392.399628 441.173706 510.097382 361.693451 453.604309 514.412903 476.141541 421.908112 377.036865 226.921738 172.874802 265.799225 322.506805 479.095032 332.858978 437.649170 377.949371 398.605225 378.202576 548.095642 450.809052 380.235413 452.813507 376.296844 380.452606 163.939606 523.917542 493.941406 412.979065 313.098145 284.288544 371.611267 233.062714 392.910309 296.785248 353.895538 457.145233 285.306946 446.575745 256.832458 360.474915 312.675140 190.516541 466.252686 450.646881 504.944366 454.752533 329.612610 502.091156 432.391144 270.421387 341.125824 488.212982 283.305573 440.294464 351.946167 297.733826 451.993256 335.470428 379.296906 392.789612 394.863525 385.998230 478.863861 460.677002 339.159973 203.805115 159.640564 406.159058 193.196243 415.776550 372.222717 307.198730 418.625946 391.970367 281.184631 263.058014 550.686829 280.250580 305.145935 186.771515 449.296844 355.135376 362.866943 373.439392 395.085480 385.624695 369.885010 328.182312 339.727173 321.888336 297.545624 257.139923 481.476349 509.138306 313.039917 124.466980 272.175171 390.842499 202.267502 342.196564 393.814972 294.440430 262.313751 359.577301 431.372620 480.899200 475.791626 416.947174 371.850769 386.325745 393.151886 262.711121 361.658295 373.519409 429.954803 403.528442 414.100037 369.522919 401.440430 300.729767 374.501007 257.885101 365.411469 387.402649 392.547272 341.102417 391.691437 383.457245 362.601959 262.138458 373.539795 402.975830 436.268219 421.699554 388.578644 464.595337 434.439026 381.503143 197.363266 115.764145 376.971252 330.338684 301.019867 445.351929 445.701050 277.160034 231.553329 298.177673 418.044769 435.517487 453.171478 436.369568 215.169708 416.453339 433.037842 405.093445 442.979340 392.027832 363.986755 501.274933 393.055115 453.344696 472.469879 
Conv_161_param_0 590.356689 340.648376 490.150482 308.144440 653.556824 630.629272 790.587341 243.592468 462.299225 539.103882 458.314270 570.256592 480.136475 648.410645 468.519745 656.308716 377.858215 589.950806 581.643127 801.954163 638.358887 545.955872 574.088379 646.237427 431.040283 448.227905 648.957581 410.708771 368.090332 292.389648 443.678192 423.940582 524.716553 599.295593 634.360779 596.747742 571.898804 558.806458 521.416931 421.392029 450.779388 735.908630 475.759430 374.384338 431.775391 546.553345 510.407684 626.561523 773.623352 510.222076 753.594238 636.522339 654.331604 243.838058 494.508911 687.013916 719.677246 293.911041 604.486267 559.299927 239.368179 655.328918 419.683685 448.846313 563.670654 470.865753 344.142059 432.230560 553.509827 408.970551 403.041473 412.380920 494.853638 372.872375 496.297577 338.041962 463.560883 285.000519 593.525085 727.664490 389.440277 621.473572 160.791763 622.477661 729.157410 341.912659 459.202942 899.277954 658.874756 460.340942 514.116028 686.404846 865.059509 731.980591 607.852966 606.240417 528.779663 399.577728 620.379517 612.115173 763.367432 659.503967 310.904877 575.350708 601.126587 807.040466 508.431091 785.461426 549.568787 591.079407 628.421936 497.880310 481.686249 472.035980 380.924133 494.910187 779.695129 399.190308 861.062317 571.267944 749.780884 499.023407 604.428833 379.075195 678.002136 441.126495 538.416565 471.262360 684.283386 625.950195 612.376465 736.489075 422.160614 545.634338 688.483704 358.503204 583.875977 316.287903 441.240936 725.350098 316.793121 477.040619 534.032471 630.268494 557.278870 642.838074 285.709961 587.925415 438.584015 483.396332 519.830139 559.681152 387.439606 679.798645 735.890991 639.306946 848.720093 632.653687 589.837646 568.115173 517.210388 500.004791 454.530060 681.396423 463.832916 424.325439 658.622681 643.354797 402.152496 536.127747 455.730164 383.841797 621.698486 489.428833 539.611572 783.083069 295.310944 591.189941 553.579773 591.629089 526.752075 448.237183 554.234375 466.249512 461.520386 492.164642 452.656738 471.152039 782.315918 654.484985 599.949768 750.647827 555.518311 521.887451 345.059387 621.987671 535.398987 378.200653 523.911682 389.832306 285.767670 322.646210 537.865295 585.102173 731.034058 698.454102 492.028259 440.649872 580.776550 600.745605 305.202454 525.663635 627.196838 502.841034 403.340637 609.257996 711.990601 252.316391 699.364563 627.264648 593.645264 535.948425 598.756287 558.056580 531.712769 588.717285 781.718445 278.039673 392.476379 672.576599 595.402283 348.412506 500.746399 800.563599 382.480957 617.299988 596.941223 484.698883 521.048645 584.214233 699.386597 525.997742 302.576172 429.697845 475.532990 438.868744 441.528839 852.685913 403.920990 533.598694 457.659424 765.731079 501.752411 237.134750 688.878540 670.387451 
Conv_167_param_0 666.737427 578.188049 275.780212 493.581787 425.179535 412.294342 348.571686 211.885147 472.449188 403.914124 425.997894 407.730865 429.674683 712.901672 798.946777 404.682190 509.046387 594.179688 506.541473 682.952515 421.811066 549.201477 580.698608 587.297852 422.139191 288.179962 537.348328 335.641968 341.582367 241.407166 446.460266 490.696320 512.447205 453.021057 553.549744 921.755371 403.104767 877.335510 839.905640 623.007629 533.778076 388.875214 276.651703 505.896881 448.204834 431.748138 545.860107 425.848145 609.947754 683.630737 421.259766 554.754333 546.962463 596.248718 203.132568 551.838867 440.623993 395.415527 312.271545 349.308289 515.014282 433.688873 407.679871 430.852325 421.830811 154.665497 609.455505 447.412292 191.021210 407.852417 482.691986 538.903137 348.219513 482.080231 616.431702 433.307007 287.778198 509.554138 580.699890 471.910095 994.416504 520.232483 454.194519 242.840210 422.014618 535.112854 472.402466 501.773376 347.617340 750.036682 309.276428 344.930939 463.490295 741.259705 494.312927 592.148804 719.267883 571.785583 278.609253 829.199219 217.627167 293.428192 454.239258 610.744812 835.007263 504.320129 516.844360 287.252014 324.915619 511.867676 233.124725 501.119019 359.267090 681.117004 608.531067 495.050079 386.765686 765.630859 616.163025 465.514191 333.051758 439.779236 506.258575 254.296021 478.099579 257.627899 400.056396 381.412384 
Conv_170_param_0 182.578491 209.746643 140.787964 134.640594 71.970558 161.898392 202.227127 168.358246 196.126404 160.941803 157.490234 131.772964 127.453110 170.013123 140.975082 146.378571 198.797958 172.776062 155.387817 149.019867 141.210495 138.311752 123.927719 113.881561 217.909790 204.889069 190.937363 104.468407 128.106476 173.953674 212.507858 230.912766 174.023132 161.819244 133.648865 87.798706 178.594391 218.359055 114.870537 246.826920 164.261612 142.729797 169.073471 232.842697 183.837723 204.407608 117.578117 150.508804 190.680573 134.325363 157.124252 128.186096 170.139175 274.123047 156.837875 196.558044 112.718292 150.446487 204.404739 152.481369 113.563568 214.472977 153.898453 137.156738 157.343719 171.973160 129.602219 148.613022 280.196350 183.581573 222.529800 351.830048 243.317352 246.838501 229.885376 138.671051 260.680420 136.769836 234.792862 194.066513 132.776108 242.775131 159.239502 133.309647 117.881149 143.245956 142.882111 312.822052 332.753815 138.042145 186.624832 196.836365 168.554977 222.197372 268.152313 136.234634 162.312210 172.659927 294.443787 189.834274 213.995529 107.825462 122.074280 260.980133 172.847153 208.575195 184.361526 119.618233 180.943115 137.753113 223.857880 161.956909 179.930527 173.625336 124.960556 88.062988 122.093376 172.250748 232.369888 146.503967 154.901917 182.278610 172.614105 94.294456 235.576233 166.882431 183.434540 127.287796 
Conv_173_param_0 76.527802 128.005661 92.580597 99.658592 173.581543 172.301575 205.120102 112.322495 39.267040 83.327538 86.641403 217.825668 97.690140 90.381821 178.173721 173.156723 89.211456 115.514114 101.834381 74.413475 105.151505 215.611038 175.095078 107.400757 88.276352 82.790665 187.628983 72.500099 119.968697 155.520813 132.828796 134.708313 89.697601 93.761650 89.290779 139.676910 127.997803 190.066986 169.718460 171.819794 123.725471 109.231590 119.661087 113.574776 120.195404 96.069977 84.433258 75.059402 127.869560 118.050774 150.583328 75.852425 85.421310 58.834274 116.107155 214.018921 152.888565 71.524002 111.790352 83.543098 95.775887 54.035255 228.224457 136.802460 69.861809 130.753632 53.597054 125.306763 109.844566 129.005630 141.582382 146.156265 214.465134 198.675461 96.268997 125.521614 175.642776 72.113350 270.375977 105.364845 66.934441 147.041214 130.093674 87.855217 158.127426 152.388397 128.794159 182.914520 183.972198 71.066788 61.547672 157.786758 185.599716 94.408562 94.304352 67.357071 187.684784 173.440781 110.746880 222.457672 133.739319 164.984680 127.226486 235.455017 172.766800 185.756241 45.375187 106.621216 157.571121 173.126266 120.912743 115.992012 192.292877 70.291611 177.476715 68.035622 71.385651 149.288177 128.024551 91.035446 70.272469 154.699432 133.428299 133.162781 74.821022 140.252960 60.103668 62.168797 
Conv_176_param_0 664.283386 417.312256 429.203064 351.209869 681.659973 547.745483 493.752502 478.709900 658.840393 348.648132 389.255432 379.561707 499.319275 524.927002 521.642151 538.154236 557.026733 529.331238 371.396667 427.104095 766.189514 546.141296 548.217102 410.439087 657.837097 354.503387 548.427368 407.220490 376.800507 360.109375 472.308868 557.056274 399.859619 604.536865 394.209442 338.562012 724.163696 394.953949 640.099548 454.817871 398.171478 531.120789 496.375732 443.916595 460.891052 368.488586 552.796997 473.249756 536.546875 325.402100 489.661224 348.173889 535.047852 508.824280 699.669250 255.376740 241.870422 494.944336 557.715942 182.508484 296.953247 516.381042 543.153198 350.305725 403.574829 274.554749 538.682129 380.568634 757.089050 601.868530 431.280731 322.212585 549.377563 515.681152 581.795349 681.222961 715.379761 643.605652 429.816650 500.460175 378.570282 347.795197 273.500275 689.875000 414.967224 468.477722 498.849335 672.325989 319.794830 359.571991 373.627045 501.651184 451.142578 426.394226 427.466461 415.157532 488.392822 621.298889 402.532471 351.347473 422.962250 637.556152 374.237396 544.915894 548.176331 666.612549 506.349640 479.661163 540.610352 609.643921 365.016937 438.013245 464.082336 461.253174 545.053833 375.176544 411.426605 400.264801 583.623901 733.536926 609.836365 427.496521 426.317474 455.001587 398.866852 381.239960 720.180725 443.326721 
Conv_180_param_0 414.767120 200.364456 275.445923 234.170502 338.844788 239.323441 302.017639 174.377579 197.739471 288.693451 215.078003 243.445679 334.462677 266.758972 233.974487 257.465271 199.673889 123.676231 267.234955 210.499573 218.009293 355.940796 261.310333 257.122833 189.090286 318.128998 294.939087 258.913116 455.133575 241.223343 273.558258 254.450150 270.146606 256.996307 128.931503 203.815231 195.014862 202.286865 217.876434 188.681015 382.531494 169.830521 213.688049 187.567719 285.370148 176.894928 157.012863 280.024414 266.733948 359.184174 186.451172 164.021072 423.867859 156.391464 211.575897 243.635193 149.326675 199.478317 298.677094 175.541641 171.997467 230.439163 336.249634 202.515854 275.211884 200.435974 155.955734 253.608765 184.092514 322.281677 165.985703 395.729340 201.983307 162.647156 289.834595 173.295837 210.131714 237.665878 256.039642 201.437027 293.702179 151.343674 179.640427 163.515396 238.988998 369.085571 213.960663 250.663803 398.414062 161.182571 393.045990 199.358917 184.577164 262.903961 293.242126 262.141052 239.180786 309.018616 345.533722 282.650818 260.159210 341.782898 373.110107 275.899048 211.772705 147.717758 229.972763 203.356201 310.109039 375.287079 157.285370 296.845917 145.038773 175.566116 226.726303 205.287872 255.455078 186.946198 224.772049 313.023865 331.766815 178.513245 238.096680 172.309357 225.871674 205.218704 335.968048 239.860352 169.011536 300.212067 189.728653 291.568024 234.250488 334.301086 234.878326 185.945038 201.613815 175.497467 277.943970 217.382980 141.861771 259.998016 171.046188 234.244629 200.953186 246.184647 165.775040 350.721527 288.156921 189.827225 273.400421 206.304596 169.090500 176.528000 187.881485 244.479706 188.179138 322.641510 205.973969 285.930664 307.090027 194.608276 219.010803 206.490692 197.867691 164.583649 145.757187 155.556808 266.285828 271.696167 248.621765 279.293243 279.625793 242.028671 262.946045 177.541885 190.201447 237.349686 292.197479 260.275024 172.355255 284.801208 220.713577 221.474030 320.556091 192.403870 239.799301 200.404144 222.477997 267.194824 271.512573 154.482040 168.600357 226.109497 230.816162 189.925766 224.466324 282.763641 184.291885 172.573654 227.678452 178.332672 303.450867 403.706848 243.475494 204.187683 183.687286 230.957718 179.308105 184.662704 182.796219 255.148651 313.491547 244.730728 256.365021 207.892654 158.305252 285.955078 180.511917 171.144058 208.863632 156.309021 308.552032 220.000931 235.848251 269.686829 203.307373 200.776443 231.982910 179.938446 275.880768 226.424622 238.380508 176.113098 146.397736 285.720215 186.764481 313.654877 330.552307 139.651062 304.931976 245.576691 285.941803 362.098236 333.683502 172.637497 249.770264 227.529938 224.894928 257.547882 226.460648 199.171112 228.872314 289.797882 195.199265 350.085968 
Conv_183_param_0 458.282227 542.487305 436.814575 356.001434 469.216553 431.461975 295.629883 403.002075 359.377838 576.156921 494.872772 187.610443 371.191589 467.499939 328.274323 375.260590 238.723434 462.512939 288.759216 437.177673 471.772949 367.775269 499.855225 414.738586 437.674713 267.202057 334.935699 335.872192 480.556641 231.014191 517.291321 424.646393 396.902618 318.692932 706.798035 326.549286 336.876740 399.876709 276.279846 364.193054 302.696320 250.987183 438.653168 469.483551 382.703857 532.021851 633.550110 259.051178 394.558716 530.290771 599.930481 407.497437 476.256195 323.006317 485.097290 298.102661 482.531799 525.120789 374.322083 323.380402 391.254364 407.997986 318.951874 588.377014 487.605682 619.594910 367.279633 523.446411 293.971344 518.794189 306.139740 357.937775 577.977417 302.552979 535.416992 453.033112 507.987152 473.017731 280.626526 550.083862 335.966980 402.687592 324.411133 367.069183 532.548340 494.500946 411.833740 262.326111 278.861053 378.841583 250.669434 314.825989 440.666138 318.835907 466.128845 594.403625 421.781494 403.578156 316.252747 379.812286 306.057983 287.204834 312.645386 547.337402 449.035645 298.902863 396.264038 268.992798 434.070099 453.032349 713.854065 538.029846 232.367416 519.486450 315.558380 267.189941 296.441193 396.124512 428.531677 365.175354 384.999084 463.714600 377.541565 519.273010 428.952850 330.559692 437.420441 285.687897 
Conv_189_param_0 257.440521 329.351685 911.590942 289.167297 349.617676 284.496948 259.800140 667.550537 681.159424 271.309418 519.956055 459.177643 1109.824829 770.709717 909.429504 350.153320 336.754517 398.020050 343.895325 384.100037 454.598358 348.008087 205.483658 187.552917 334.268250 480.263000 324.791168 1183.286987 318.019745 430.079773 188.932297 769.978455 320.140198 1179.155762 454.026367 836.435791 476.177704 383.338135 606.945496 1006.956909 372.287598 356.536987 1161.472778 293.871704 257.549408 982.827087 258.071655 537.180664 452.848389 361.492157 297.257477 785.014160 499.488190 537.222839 365.034180 301.106628 363.606018 829.202881 371.307129 384.970703 381.788879 383.490814 539.004028 704.262512 
Conv_192_param_0 119.970062 170.994186 111.516685 126.315750 116.230049 67.585526 67.746223 159.851212 83.350616 88.657524 82.609718 53.013798 238.316803 226.456757 66.717628 70.421394 64.331543 135.995697 187.523987 292.833710 98.310768 102.858147 62.061298 86.951042 129.584381 152.132599 59.188908 82.694405 80.103775 103.431961 129.587219 68.006744 87.724686 60.499512 77.441750 71.687088 114.304077 108.092323 129.327194 95.300461 63.852547 102.355049 79.993599 104.103569 108.108574 117.523926 60.683258 119.412369 63.368816 98.516884 134.795853 241.635315 67.260361 78.116798 222.849854 186.391937 176.823105 198.830948 127.214912 271.986786 116.795174 121.250076 80.677879 120.612007 
Conv_195_param_0 25.497547 33.364376 48.073631 52.276482 88.066429 30.868378 47.427227 71.060005 27.086588 82.371071 49.793938 60.587132 41.524372 35.003124 42.888721 51.983109 46.010490 46.712856 145.804825 33.314144 25.861168 37.932152 47.018745 24.637264 49.951885 69.312004 50.178902 27.771832 19.539654 40.734322 42.087551 70.495300 40.798103 30.344189 39.583447 42.853485 42.679447 36.074787 36.306587 73.704124 130.474014 42.582809 43.247829 55.205891 54.495899 39.739773 70.863762 48.251659 53.949665 42.958130 45.206154 39.351692 54.787575 71.312569 37.763863 52.447586 49.073566 50.551216 66.820175 48.527351 79.592010 48.322201 48.597954 54.798416 
Conv_198_param_0 211.655045 193.815781 198.669937 251.745026 368.333496 383.451904 313.670685 269.079834 331.069489 414.062775 232.628265 198.973801 254.527969 260.966705 385.669647 254.139343 216.286346 198.276184 256.461090 305.398743 289.282501 266.222412 186.630997 241.794312 211.562836 428.885223 243.394012 434.188812 238.828506 304.460175 261.759857 272.873444 323.466766 325.679901 222.217102 139.158340 181.409851 281.438232 212.871414 326.457581 219.987915 555.052551 255.790176 272.226135 180.678360 280.647156 326.002533 367.899506 201.329834 507.173828 292.322510 230.899506 224.491821 414.652802 397.748260 222.306076 325.160919 270.348450 256.085144 223.987473 253.651840 217.594742 315.293427 277.833740 
Conv_202_param_0 69.736237 118.899078 69.352745 76.578293 67.410324 71.136955 68.226181 50.995594 87.064201 158.978119 83.065117 154.783447 85.707596 151.508621 68.225784 62.629829 148.735580 112.921074 248.135315 46.850113 66.402443 73.166138 40.052620 61.698593 74.289146 57.582714 68.029037 67.393585 43.151363 148.445328 68.031555 66.510788 386.786102 78.038063 106.995026 125.639381 60.304279 69.059181 115.485947 215.871658 75.524681 139.194733 79.643974 84.762558 135.242783 64.780487 116.527596 92.003098 57.227280 369.968689 61.425026 52.426510 63.618702 41.031311 149.154907 104.530540 47.264217 266.507477 47.870789 146.467911 137.829987 115.927376 86.417503 93.217430 174.894180 73.993462 202.157166 124.987206 79.027000 188.932632 79.402473 85.365234 105.827179 68.690002 48.825562 153.337540 105.349678 60.437008 72.068161 166.340637 192.992874 86.849434 121.084618 262.575958 66.289978 86.648331 97.882652 49.790581 72.857681 64.984985 55.432251 154.232529 57.315319 266.206635 111.893326 59.092800 87.550034 89.183372 75.345558 53.660076 138.835602 123.338631 47.484230 81.883720 97.197632 68.703125 256.117859 155.933380 62.799862 112.542458 231.175598 81.139488 105.755783 53.125015 67.393280 57.366428 91.155083 98.513893 155.833313 79.732491 126.103897 75.650566 53.286385 147.003265 290.129944 111.830681 58.767967 62.266094 
Conv_205_param_0 2190.435791 1375.707275 643.498047 971.828674 1371.381348 1517.399658 1751.874878 2892.164062 517.452148 890.596313 2554.900391 1017.077332 2059.589844 1427.501099 2467.122314 1069.665649 1854.670044 1530.235596 1318.759888 3254.686523 850.213135 917.818359 1122.744507 893.768982 7684.544922 912.379944 990.097656 896.793213 2028.464966 991.535645 1736.126221 1166.642578 1123.669800 456.561615 634.875366 1801.422607 1402.983154 4845.414062 966.935364 2993.434082 1485.594604 870.009155 3732.000244 1492.784790 534.791321 1782.586792 1373.839600 1041.542603 4089.276123 2580.593750 1095.429443 1179.523438 741.579041 1074.244751 4574.619141 674.251465 6883.667969 1654.462891 4276.625000 715.983826 2558.644043 4491.299316 1015.039001 754.743774 1203.651245 1224.106567 979.943176 1133.885132 1021.791443 2062.465576 3072.693848 1773.751709 6817.327148 2095.339111 976.181274 4677.587891 3949.438232 4185.040527 3832.305420 5361.173340 1209.821533 2357.126221 1477.302612 2696.696289 2708.546387 1586.857178 3036.306641 1359.080811 982.984192 3822.193604 2477.067871 604.033813 1719.838013 929.064026 983.267456 7692.171387 1088.045898 1164.871216 1067.719116 973.164185 1214.559448 1729.070801 2031.242798 806.510193 1297.695435 1274.180176 851.689087 1271.274658 1067.163940 863.278748 817.761353 1207.660400 524.517334 950.627869 933.953735 1772.227905 3012.628174 2865.429443 687.277588 1079.274902 1777.622070 2464.458252 800.471741 1477.302612 800.286133 2818.839844 3578.091064 711.675659 
Conv_209_param_0 274.353363 284.085815 307.154297 291.000427 393.512939 295.669128 313.218445 279.727600 297.215759 141.497604 356.009094 169.119385 189.072739 411.353149 281.991302 218.510971 371.512848 209.190002 154.377075 282.453583 244.780823 274.296936 314.245209 171.457596 295.006836 331.321442 251.192047 408.833099 210.856003 329.407166 449.052826 176.262360 322.717651 137.638702 161.881470 282.441742 279.620331 376.157806 303.571533 319.177826 228.609451 245.688065 233.709122 385.063599 315.224091 327.769501 290.311218 153.625824 240.370132 533.573059 514.191467 281.188477 574.807739 193.751419 162.255249 283.608795 133.044128 265.958160 539.002625 256.157898 284.962738 293.915924 306.587708 148.425217 331.102997 210.574341 355.752991 243.634109 257.311462 176.314590 231.059402 230.473114 193.568405 397.629364 287.599579 355.391541 237.349762 257.257568 377.273590 451.529327 281.898285 304.131073 415.702698 281.520935 255.796829 303.686188 253.036194 317.473145 299.629150 334.329285 235.461029 201.414154 273.042877 270.124939 411.662445 330.268524 152.879807 353.943695 197.919586 265.196228 349.868805 183.522018 302.987366 278.230591 476.019196 241.234940 277.858246 183.179535 287.988525 185.519852 239.539352 161.084717 275.207367 274.097198 236.014847 278.992249 239.192719 369.077820 142.161484 283.083801 317.398438 235.942276 315.736786 306.127258 378.713867 160.299133 220.246613 180.009552 
Conv_212_param_0 229.506622 258.542236 140.817780 250.229996 337.189880 202.115494 120.572372 210.162430 136.184540 247.579193 281.625641 295.416046 110.853806 242.851028 322.983643 261.664429 221.637253 142.243301 392.830872 349.136414 308.390747 374.445557 296.504547 246.014099 222.586365 221.423416 222.612549 268.854462 152.235123 249.329803 172.113434 217.578079 227.092056 288.307953 265.594330 271.310638 522.858521 166.874313 278.596466 380.140411 174.315475 296.901215 225.866409 329.670166 286.657684 205.123703 364.468048 142.633926 329.581757 326.782990 359.882477 350.597992 350.300720 286.351929 134.114624 277.330811 141.844574 191.969986 262.291718 125.420944 686.788879 122.028557 390.490295 144.708221 274.934357 213.794495 163.982483 341.328369 195.974289 292.696655 236.226746 116.768532 323.840729 319.354614 667.953125 297.836090 388.430695 438.251129 162.869202 147.619019 355.196991 455.151398 268.162506 240.949570 326.467285 274.638672 213.991821 412.615784 264.417267 263.532990 158.815826 360.369354 272.776184 237.861282 184.877701 182.823471 242.007675 185.492706 244.251724 169.367538 332.891876 376.771759 142.352448 346.528229 404.539093 387.188293 281.419769 173.750870 120.502281 215.373016 264.325684 297.246735 363.034149 265.814575 213.422943 470.695892 355.450531 304.614990 245.239685 198.843048 202.096710 169.912399 224.876663 141.208145 358.136200 183.811462 141.642822 318.378357 
Conv_215_param_0 217.606796 69.660927 73.755264 71.251434 56.973831 30.461933 36.657665 140.126160 63.709583 38.050278 49.926876 58.951069 205.967346 43.936481 43.776920 80.997124 79.377205 66.975136 198.406998 96.470818 90.458542 83.148170 37.263329 72.082932 76.602592 48.661144 41.702812 41.292171 37.328804 87.395218 272.844604 101.790627 88.166466 72.915413 88.777237 134.369461 154.797272 103.317146 54.198170 36.250305 73.187164 73.275345 48.173717 117.027428 97.602730 56.526608 148.954514 58.941311 47.336163 49.844231 88.016808 39.199894 98.163857 99.620903 88.916824 106.122803 61.296726 72.314819 38.640774 61.790791 79.088966 32.452969 38.913464 72.541962 49.565544 59.387154 46.035236 65.707520 42.059368 90.163094 94.262749 69.492409 43.065029 79.352470 143.617996 51.649551 44.142529 40.563499 91.485748 98.067955 72.136200 52.017479 107.384537 71.181190 51.164043 85.679604 67.770737 65.381729 100.771576 103.995506 70.773727 46.244633 87.621887 64.986061 109.984161 84.836601 122.772942 28.329195 36.004646 80.793892 39.401100 53.485535 124.197105 44.272343 59.606148 47.020443 45.830727 66.011597 75.368103 94.034256 53.215855 83.985229 46.235001 47.995308 76.012093 41.718960 67.531372 177.345551 71.387886 79.158165 56.952343 108.951714 96.286453 64.434837 111.838631 88.159073 48.940399 34.019028 
Conv_218_param_0 269.714935 457.006104 371.574677 421.251740 283.545258 152.164581 274.349457 405.208771 210.925095 287.607941 296.995697 230.521317 292.035431 315.546387 198.507278 275.145599 268.417236 349.252411 242.766144 301.780396 295.057251 536.315491 375.803131 243.348450 200.728378 167.216507 237.978653 251.394867 354.098236 566.046936 272.848877 367.661774 382.771240 390.308044 584.075439 205.694199 263.582336 203.282837 213.611740 216.562958 222.465729 133.864166 479.347198 292.269226 264.244934 231.263062 82.342285 254.271454 376.460632 584.283508 425.446350 475.454834 200.813828 314.120422 339.394135 310.584198 370.910767 214.071579 299.142975 183.535385 257.360260 214.439972 352.312286 274.767151 224.114746 272.850220 169.290955 567.174988 181.848557 281.062805 270.178345 266.133270 242.190979 368.189056 204.254059 150.001495 328.916718 392.479736 275.703033 179.144501 375.170837 352.356537 275.173065 413.082428 293.433380 317.640198 183.619812 317.107544 236.790222 270.477234 299.321564 244.329391 229.734207 260.067474 188.035339 617.883484 249.369400 342.702148 203.323227 264.226318 191.086746 552.745667 133.071579 177.085587 294.155457 270.713348 228.115921 224.627060 201.859543 221.594910 475.901062 213.922653 360.069733 235.187103 251.379227 195.835907 323.857941 550.199158 312.922180 166.958466 293.379303 306.738739 277.172333 224.276550 243.560837 410.990875 182.770309 275.889008 
Conv_222_param_0 85.906754 465.223969 180.649277 136.519730 123.280243 87.032272 58.765381 438.408569 132.523163 128.514145 249.624893 101.027870 197.743805 127.302467 163.506989 144.479767 145.402908 146.453644 145.404068 92.770721 104.307632 94.930412 76.476967 65.885719 122.104584 87.683136 121.725174 149.649353 68.703056 141.682388 446.475555 182.190491 461.622925 179.002930 154.812912 261.722565 145.663071 100.828636 184.956161 596.122620 165.111237 117.983627 155.744019 131.252167 117.608696 100.687965 109.090279 116.452621 129.871246 61.731480 134.690491 103.439354 102.874313 164.484116 205.912308 205.709351 95.721039 94.832787 134.972916 92.758888 189.619843 151.393951 90.915031 65.258743 173.118500 103.461632 196.316238 153.977509 377.138000 123.405090 96.738129 92.410263 109.812386 79.961731 87.032631 96.414825 368.817993 186.316269 141.324631 147.856903 165.510727 171.573303 135.695801 346.309814 97.669296 126.442787 108.003868 72.110802 387.436218 110.199623 263.143402 171.386932 109.018135 119.002914 123.264183 172.935181 146.920181 121.738045 128.352936 195.345261 171.117920 128.694458 201.555496 121.951256 103.872467 263.801910 462.522156 105.367409 122.347588 190.429871 107.692116 117.672974 106.298203 119.790581 132.672226 194.713577 137.349289 314.562653 283.030853 102.465340 133.205368 126.981125 137.340256 163.560059 101.019470 72.307083 81.197006 153.066391 100.811882 102.346176 136.951736 179.027283 72.333328 112.200081 157.519852 92.888420 176.438202 164.548492 368.082825 117.829582 107.875107 107.077950 229.433884 116.684952 143.602982 132.725006 92.149437 104.818130 195.867706 192.897034 156.835587 477.460358 183.701767 442.850006 101.001335 129.315445 99.380074 432.354401 190.679337 84.433144 103.012360 96.264626 88.734138 260.385101 104.573860 341.240509 110.001335 348.987000 92.230598 131.356064 90.303551 172.359650 84.630928 117.732246 98.257080 118.163734 336.022369 150.129028 242.604431 103.060371 148.054459 123.329567 153.185074 144.383759 334.153442 117.585258 171.512314 197.117661 351.861542 108.352333 89.941658 711.112671 137.803848 363.184509 119.104172 211.179077 263.910309 473.285431 96.764091 129.735901 168.158966 155.321503 119.812469 101.120079 95.415535 104.431099 113.706169 376.059509 143.088211 124.543587 85.160728 134.137970 148.677948 125.447365 90.446419 150.824463 127.850563 140.393265 138.187622 80.323059 244.660355 439.823486 143.656647 572.940430 364.691956 104.753258 88.180275 126.486145 193.733917 69.254257 126.849342 160.927551 152.719421 239.073792 247.356155 109.093307 164.827713 101.036293 110.780960 150.648087 105.691200 130.402130 130.558777 105.574554 106.296074 212.627213 165.432571 187.174469 116.036560 172.142349 252.662888 121.934601 113.171387 125.320175 163.298737 142.731689 
Conv_225_param_0 3409.299072 1716.748047 1191.100098 894.908752 1196.972778 1057.720215 3599.354248 1046.985596 1535.921021 2649.078369 933.229919 878.249939 6102.409668 3387.787842 4307.352539 1682.985352 1323.992188 1661.327148 3231.485840 596.474792 1616.621704 952.021606 565.565613 837.548279 934.131348 884.877502 2284.542725 786.929260 1015.548950 5301.836426 4641.778320 874.679016 1312.966797 1035.219360 517.276367 3425.817871 1626.575928 1741.498169 2027.997925 495.990997 1263.689819 954.879272 1095.416748 1584.260986 1006.472351 1251.081909 2263.431152 1956.519897 1273.104248 1344.789185 1035.791260 4550.639160 341.508087 1199.444336 1886.135010 1247.831543 2278.997559 1530.370605 1412.663086 1090.393433 432.217834 2079.942627 888.378906 908.711365 1748.977295 1046.031250 786.117981 827.206604 1392.259766 3317.371094 946.638489 2673.279297 867.910583 1467.905884 3151.850098 1925.192139 1079.848145 2122.559082 1471.138306 1298.814209 858.431458 2973.699951 588.298828 1787.489502 1017.704590 988.330261 3221.666748 7255.278809 4542.033691 1475.426758 1230.450928 2998.301270 2305.916992 1333.049927 576.379639 579.580994 1461.242310 5705.586914 599.536865 887.180786 2452.732422 2431.827393 744.382324 694.577454 833.358887 832.138550 4025.069824 1945.644775 1187.896973 971.844299 567.082214 3190.721924 3432.486572 1093.246094 1212.886353 1362.327271 3167.679932 1550.791626 4580.703613 1108.446655 3931.264648 1320.957153 804.474182 788.334106 1078.036987 522.823242 1647.296753 5155.699219 871.059387 3465.239502 3687.997070 1338.381226 2016.131226 372.483246 917.006470 1877.390015 1532.948608 1001.578430 3789.464111 1379.998291 1805.767822 904.481873 6050.474609 795.347595 1454.720093 647.500793 827.057190 1477.122925 1439.128662 1663.921509 379.505737 742.886963 2989.696289 5515.850098 1237.881226 1994.519897 4390.080566 730.188721 4921.001953 2957.030029 735.817200 903.817627 2778.061523 3160.781738 833.000122 5378.819824 795.505188 2125.360840 787.019287 620.165039 599.017334 601.093384 1574.479126 818.474426 2907.445557 664.600403 545.414246 3743.006348 2667.405273 2359.827148 1455.102539 1319.208008 5061.552246 1614.449951 532.558350 2030.886841 991.523987 1020.508057 3636.129150 5333.279297 604.043457 1092.737183 709.450195 1191.800049 4871.890137 653.777588 1643.932129 2052.653809 1356.382812 3557.884766 3975.040039 2155.274170 3659.635986 987.746460 1548.657227 2781.454346 7295.148926 841.316711 1026.683594 1557.882935 2130.607666 1198.476196 3944.631348 2103.003662 5827.621094 1207.986816 4357.702637 1167.786743 825.944031 618.866943 5335.479980 5578.548340 2245.814453 1343.423950 494.436127 907.440063 1314.559814 843.438538 1507.396851 4013.688477 1173.026489 739.693176 1085.561401 2352.790039 3961.078369 1975.312988 3904.290771 591.903748 5061.367188 1616.448242 1440.587158 1232.733887 1658.967896 755.601929 1061.171509 1114.840332 581.048828 1201.611572 2257.120361 1299.731567 1391.473511 562.486694 1083.455200 3027.545410 2160.392090 876.381653 
Conv_229_param_0 355.422211 351.018066 498.239838 334.822205 207.348907 466.050232 398.437836 291.409271 402.244537 158.253479 417.800598 321.324951 400.301117 309.986633 122.313522 362.404419 329.714508 459.084991 388.868866 396.413452 528.140564 221.933426 484.611389 381.785248 503.103485 412.963654 154.682205 253.584610 311.876740 332.471893 318.426880 276.315857 403.033905 249.102737 444.258026 312.332703 379.075775 284.606354 364.810425 241.090164 222.480148 325.692963 217.831726 340.610687 253.705841 323.670959 238.863510 308.111328 164.618927 515.012207 266.519196 282.291107 425.267609 382.069946 468.422089 300.553131 267.474396 321.871948 340.042877 304.847778 272.694672 570.416809 283.965790 374.724213 356.765503 401.955872 308.176086 381.538483 397.660034 350.032379 327.997070 389.736328 437.424652 309.358215 350.557007 296.514130 373.760742 330.221680 591.003845 648.023010 379.327698 216.136765 177.241180 419.435944 514.329773 284.091187 266.677185 347.240112 284.513550 439.551514 401.800293 370.927795 484.517456 401.489899 352.537109 410.571991 258.650085 433.546387 226.655899 416.093750 309.676880 401.784332 368.936554 594.170532 366.523193 484.263794 385.428253 452.086090 437.587067 428.965393 330.446198 415.051392 357.047302 219.480865 322.792725 420.393555 172.552643 288.440308 364.934631 240.682724 447.432159 384.839905 289.186035 412.943878 285.411896 352.065979 349.241577 314.618530 250.743591 420.395020 268.953430 137.560776 416.331024 456.872681 350.760437 333.370483 421.928284 341.661499 414.488922 490.154602 157.607819 266.410187 348.141266 353.193848 288.187012 512.708130 293.815918 440.487854 418.439026 365.951782 389.059906 407.693054 415.582855 365.403839 386.634583 351.878082 340.201538 292.273315 438.927185 440.460022 307.425323 343.701691 238.855209 368.801300 380.522797 274.738800 290.192810 306.156097 330.413879 137.318481 322.278412 467.990143 321.849243 441.555817 320.925293 311.961853 391.418365 444.362122 212.710846 279.252319 400.857849 213.635971 387.922577 391.625671 259.170105 351.729065 423.757141 306.721680 342.064423 407.827576 225.504303 314.296387 380.036438 530.760132 242.612640 421.563477 322.219055 224.270905 286.316437 321.259644 332.779266 169.706909 469.018951 410.221100 189.186325 390.137360 282.785736 254.474228 211.763412 589.874023 346.169891 426.086121 463.213928 340.910370 265.272583 154.723587 319.037720 340.695831 293.854218 425.585419 337.024384 429.204468 204.755005 267.750305 369.922546 384.024200 330.556458 437.509705 430.646637 370.747101 375.248413 355.895935 371.012451 361.618195 376.415161 595.109314 433.312317 265.929443 337.945618 189.929108 294.403442 173.635788 349.816528 237.131821 202.443741 289.064056 415.212769 248.606628 381.500732 532.291870 186.173203 270.300781 363.294159 390.433441 313.470215 340.519531 
Conv_232_param_0 182.771805 299.371063 157.131805 366.040771 318.655640 341.438629 162.536606 89.979012 242.722778 238.095001 365.531586 262.775818 284.332550 307.585846 471.139282 238.482986 243.000000 242.872620 163.830139 146.114868 352.434479 312.312805 283.146423 202.635330 166.059784 297.848175 203.675476 149.914764 344.133606 234.502014 327.592133 235.523087 226.761917 245.109268 247.529236 244.496933 261.409119 282.943542 207.391693 285.920593 373.851257 327.716400 101.087242 173.545151 570.600891 134.981842 394.037659 231.346359 179.870041 212.243240 316.233185 373.945740 207.908661 278.263672 127.396225 170.654221 288.697144 149.535980 214.927917 105.499641 247.341232 320.096008 229.055481 381.577301 303.418060 364.404297 300.019806 301.859375 213.966827 220.549454 702.244080 424.950500 348.100800 359.283875 378.675568 378.202118 379.484100 249.128281 257.330475 308.900757 281.870209 331.736084 229.078186 258.043060 241.542679 256.687378 313.545532 284.886597 207.692322 361.358215 292.162445 226.261505 303.184662 419.024872 585.212402 268.199890 197.371582 247.843689 449.374451 198.133453 254.369080 182.577850 217.395111 521.514954 329.923309 240.877274 322.052185 255.621246 349.721649 134.538055 293.523010 260.390289 254.101425 469.041046 224.181168 616.259521 146.016693 403.541992 212.641769 392.990936 281.680725 209.000275 241.422363 469.701447 227.873581 305.643250 103.122047 259.477783 297.858246 222.816040 243.382919 243.581329 458.034302 131.772659 308.981171 178.077988 312.963623 484.462860 298.582550 211.677597 221.300980 290.720123 333.908295 189.437042 223.670593 195.524002 192.335251 280.047607 231.604462 294.566650 433.911377 340.212982 254.541290 192.824265 392.891357 233.260254 223.222229 278.898804 480.240204 179.910690 312.182587 271.511047 377.025116 195.927383 224.832672 117.204247 129.707367 239.633575 257.666107 281.861298 312.029449 278.838013 270.131927 357.031158 268.774109 355.911163 413.538086 426.344269 380.518768 199.989075 202.299377 302.326202 139.932327 204.414627 354.404022 371.596283 406.267212 290.288055 519.825317 182.623367 158.270172 463.026550 337.953461 172.693985 315.418823 268.544983 276.215393 264.979095 322.107758 278.426453 376.002197 219.963547 462.770538 267.156158 246.413239 280.131561 295.120026 364.067444 304.709442 293.121246 259.369202 278.876343 435.525330 292.409180 434.468140 311.817780 319.569824 208.089020 255.466965 349.150146 254.400024 318.906464 209.683273 117.400230 503.542389 334.141388 265.325714 254.120438 458.654877 163.720108 380.494751 399.394623 405.660858 221.283310 271.256165 242.177475 411.377441 348.756226 237.749786 591.699524 241.796829 368.262665 268.656525 215.343201 275.181610 207.913696 282.662506 126.756493 140.473434 343.276398 307.559784 243.368011 256.680847 431.875031 338.482208 117.446373 
Conv_235_param_0 134.643646 79.448555 79.353409 108.210289 305.721619 317.028992 158.919617 137.827393 82.759026 132.251999 77.864220 77.993690 276.327942 196.185654 176.397186 139.102600 167.560013 61.352005 172.399445 142.612000 92.866318 149.870560 161.872452 168.630722 138.238861 97.243752 323.567596 162.053848 69.706390 139.316849 114.426620 333.617523 197.236008 184.930634 195.550415 158.009796 224.312469 240.387619 150.433838 200.079285 82.021561 160.426086 171.308380 99.785843 88.278885 219.913559 112.453873 186.625076 187.295670 145.093079 211.367096 156.580048 182.014572 249.001404 212.300491 144.893921 58.207489 106.835739 156.811584 118.415550 121.829033 88.884323 107.351883 72.684677 103.060158 70.728676 103.531982 52.368122 190.313843 88.079987 163.740814 121.020439 235.231567 170.703613 235.823318 73.270279 127.185562 126.022362 117.992081 233.033020 119.408333 135.914368 188.057327 74.384033 171.995117 110.130104 175.774673 114.401169 47.934265 56.320198 174.272629 116.391777 87.467644 70.640091 160.422623 62.481174 235.430664 91.640236 84.993721 160.128891 122.449310 140.130295 184.416275 106.495941 186.784485 176.625458 188.621384 214.613358 198.646942 151.164062 142.819504 165.479111 65.122467 132.178497 95.220551 122.586906 98.026375 77.817558 98.388901 603.463562 105.708374 180.071182 164.151230 157.546692 151.914963 164.572952 37.152706 85.521736 201.359863 162.854385 62.527111 131.739090 104.638969 146.589462 118.695320 130.574203 94.684151 105.692635 124.113205 137.080307 118.542343 212.037094 75.794838 98.345047 97.776787 181.872940 165.991348 141.049377 114.464218 148.910828 138.504547 155.204666 162.854843 122.048157 78.450638 193.982727 90.639267 177.597168 134.643234 150.406036 228.334045 101.287880 185.494217 220.735489 195.408691 79.006973 93.635750 122.440979 82.139458 182.651871 88.740372 144.064392 147.579163 192.265823 83.973267 169.371323 228.263489 195.134796 180.706192 76.643837 179.374954 180.629333 79.721649 75.688408 146.050369 53.500092 193.807892 184.461227 68.014404 137.261749 138.965927 67.110268 134.226669 117.001221 109.274582 109.346985 197.307312 234.521744 104.663628 189.955933 149.688477 178.371948 179.418060 129.473373 189.419922 119.201920 47.484531 91.454292 39.392776 89.044289 232.109634 146.352371 71.717133 114.977310 163.469238 161.644592 80.793579 62.067265 215.357971 211.232773 125.043106 100.077919 53.095654 196.168869 79.402779 190.120575 136.403366 78.563271 117.800606 79.188057 66.372810 82.167679 94.728058 196.253723 174.330490 55.563393 242.917664 52.473228 113.512459 146.293579 141.648193 39.194168 127.042847 135.026077 125.899979 79.573502 113.608948 173.485138 84.792526 114.780602 54.205990 109.433754 101.242035 79.507065 192.467545 171.710083 
